<pad>	0
<unk>	0
<bos>	0
<eos>	0
<penggunna>	0
</penggunna>	0
<asisten>	0
</asisten>	0
<0x00>	0
<0x01>	0
<0x02>	0
<0x03>	0
<0x04>	0
<0x05>	0
<0x06>	0
<0x07>	0
<0x08>	0
<0x09>	0
<0x0A>	0
<0x0B>	0
<0x0C>	0
<0x0D>	0
<0x0E>	0
<0x0F>	0
<0x10>	0
<0x11>	0
<0x12>	0
<0x13>	0
<0x14>	0
<0x15>	0
<0x16>	0
<0x17>	0
<0x18>	0
<0x19>	0
<0x1A>	0
<0x1B>	0
<0x1C>	0
<0x1D>	0
<0x1E>	0
<0x1F>	0
<0x20>	0
<0x21>	0
<0x22>	0
<0x23>	0
<0x24>	0
<0x25>	0
<0x26>	0
<0x27>	0
<0x28>	0
<0x29>	0
<0x2A>	0
<0x2B>	0
<0x2C>	0
<0x2D>	0
<0x2E>	0
<0x2F>	0
<0x30>	0
<0x31>	0
<0x32>	0
<0x33>	0
<0x34>	0
<0x35>	0
<0x36>	0
<0x37>	0
<0x38>	0
<0x39>	0
<0x3A>	0
<0x3B>	0
<0x3C>	0
<0x3D>	0
<0x3E>	0
<0x3F>	0
<0x40>	0
<0x41>	0
<0x42>	0
<0x43>	0
<0x44>	0
<0x45>	0
<0x46>	0
<0x47>	0
<0x48>	0
<0x49>	0
<0x4A>	0
<0x4B>	0
<0x4C>	0
<0x4D>	0
<0x4E>	0
<0x4F>	0
<0x50>	0
<0x51>	0
<0x52>	0
<0x53>	0
<0x54>	0
<0x55>	0
<0x56>	0
<0x57>	0
<0x58>	0
<0x59>	0
<0x5A>	0
<0x5B>	0
<0x5C>	0
<0x5D>	0
<0x5E>	0
<0x5F>	0
<0x60>	0
<0x61>	0
<0x62>	0
<0x63>	0
<0x64>	0
<0x65>	0
<0x66>	0
<0x67>	0
<0x68>	0
<0x69>	0
<0x6A>	0
<0x6B>	0
<0x6C>	0
<0x6D>	0
<0x6E>	0
<0x6F>	0
<0x70>	0
<0x71>	0
<0x72>	0
<0x73>	0
<0x74>	0
<0x75>	0
<0x76>	0
<0x77>	0
<0x78>	0
<0x79>	0
<0x7A>	0
<0x7B>	0
<0x7C>	0
<0x7D>	0
<0x7E>	0
<0x7F>	0
<0x80>	0
<0x81>	0
<0x82>	0
<0x83>	0
<0x84>	0
<0x85>	0
<0x86>	0
<0x87>	0
<0x88>	0
<0x89>	0
<0x8A>	0
<0x8B>	0
<0x8C>	0
<0x8D>	0
<0x8E>	0
<0x8F>	0
<0x90>	0
<0x91>	0
<0x92>	0
<0x93>	0
<0x94>	0
<0x95>	0
<0x96>	0
<0x97>	0
<0x98>	0
<0x99>	0
<0x9A>	0
<0x9B>	0
<0x9C>	0
<0x9D>	0
<0x9E>	0
<0x9F>	0
<0xA0>	0
<0xA1>	0
<0xA2>	0
<0xA3>	0
<0xA4>	0
<0xA5>	0
<0xA6>	0
<0xA7>	0
<0xA8>	0
<0xA9>	0
<0xAA>	0
<0xAB>	0
<0xAC>	0
<0xAD>	0
<0xAE>	0
<0xAF>	0
<0xB0>	0
<0xB1>	0
<0xB2>	0
<0xB3>	0
<0xB4>	0
<0xB5>	0
<0xB6>	0
<0xB7>	0
<0xB8>	0
<0xB9>	0
<0xBA>	0
<0xBB>	0
<0xBC>	0
<0xBD>	0
<0xBE>	0
<0xBF>	0
<0xC0>	0
<0xC1>	0
<0xC2>	0
<0xC3>	0
<0xC4>	0
<0xC5>	0
<0xC6>	0
<0xC7>	0
<0xC8>	0
<0xC9>	0
<0xCA>	0
<0xCB>	0
<0xCC>	0
<0xCD>	0
<0xCE>	0
<0xCF>	0
<0xD0>	0
<0xD1>	0
<0xD2>	0
<0xD3>	0
<0xD4>	0
<0xD5>	0
<0xD6>	0
<0xD7>	0
<0xD8>	0
<0xD9>	0
<0xDA>	0
<0xDB>	0
<0xDC>	0
<0xDD>	0
<0xDE>	0
<0xDF>	0
<0xE0>	0
<0xE1>	0
<0xE2>	0
<0xE3>	0
<0xE4>	0
<0xE5>	0
<0xE6>	0
<0xE7>	0
<0xE8>	0
<0xE9>	0
<0xEA>	0
<0xEB>	0
<0xEC>	0
<0xED>	0
<0xEE>	0
<0xEF>	0
<0xF0>	0
<0xF1>	0
<0xF2>	0
<0xF3>	0
<0xF4>	0
<0xF5>	0
<0xF6>	0
<0xF7>	0
<0xF8>	0
<0xF9>	0
<0xFA>	0
<0xFB>	0
<0xFC>	0
<0xFD>	0
<0xFE>	0
<0xFF>	0
an	-0
er	-1
▁d	-2
ar	-3
en	-4
la	-5
at	-6
in	-7
▁s	-8
ang	-9
▁m	-10
▁p	-11
si	-12
da	-13
▁di	-14
▁t	-15
▁b	-16
un	-17
ah	-18
▁k	-19
▁S	-20
al	-21
ak	-22
em	-23
▁P	-24
on	-25
as	-26
am	-27
ada	-28
▁se	-29
es	-30
▁K	-31
▁A	-32
or	-33
lah	-34
▁y	-35
uk	-36
▁yang	-37
▁B	-38
ya	-39
ik	-40
it	-41
eng	-42
▁T	-43
▁dan	-44
is	-45
▁M	-46
▁D	-47
ari	-48
ga	-49
ur	-50
il	-51
▁(	-52
el	-53
▁I	-54
bu	-55
et	-56
▁ber	-57
di	-58
▁in	-59
us	-60
ol	-61
▁ada	-62
▁1	-63
▁R	-64
▁ter	-65
um	-66
ala	-67
ara	-68
▁ini	-69
ing	-70
▁2	-71
▁adalah	-72
ta	-73
ba	-74
▁dari	-75
▁C	-76
ter	-77
▁L	-78
▁ke	-79
▁men	-80
up	-81
ia	-82
ro	-83
kan	-84
ut	-85
akan	-86
im	-87
ek	-88
nya	-89
▁J	-90
id	-91
▁N	-92
ap	-93
▁per	-94
00	-95
ir	-96
▁l	-97
ja	-98
ul	-99
om	-100
▁pada	-101
esi	-102
▁In	-103
ama	-104
▁j	-105
asi	-106
gi	-107
▁mem	-108
▁G	-109
engan	-110
ung	-111
tuk	-112
ti	-113
▁H	-114
▁dengan	-115
ep	-116
▁mer	-117
▁F	-118
ahun	-119
alam	-120
ela	-121
gai	-122
▁19	-123
▁tahun	-124
▁h	-125
▁n	-126
eh	-127
ri	-128
pat	-129
▁U	-130
ra	-131
atan	-132
ata	-133
eb	-134
ran	-135
bagai	-136
▁pen	-137
atu	-138
aw	-139
▁un	-140
▁W	-141
upakan	-142
▁dalam	-143
▁as	-144
▁merupakan	-145
ok	-146
ec	-147
oid	-148
▁la	-149
▁E	-150
teroid	-151
▁untuk	-152
▁200	-153
▁sebagai	-154
emb	-155
esa	-156
ong	-157
ant	-158
and	-159
ud	-160
ent	-161
don	-162
eg	-163
ic	-164
ad	-165
▁meng	-166
oleh	-167
ub	-168
os	-169
ula	-170
ota	-171
▁f	-172
▁O	-173
▁r	-174
esia	-175
▁oleh	-176
donesia	-177
asa	-178
▁w	-179
▁Indonesia	-180
01	-181
fer	-182
ag	-183
▁g	-184
▁c	-185
ed	-186
ebu	-187
tr	-188
▁asteroid	-189
▁Re	-190
▁Y	-191
uar	-192
▁ju	-193
uh	-194
▁sebu	-195
gian	-196
he	-197
jadi	-198
ida	-199
ih	-200
per	-201
▁sebuah	-202
▁ba	-203
ahan	-204
▁sa	-205
ensi	-206
wa	-207
ati	-208
amp	-209
isi	-210
esar	-211
▁juga	-212
ip	-213
anya	-214
▁Pran	-215
ot	-216
amatan	-217
▁"	-218
ab	-219
ilik	-220
usi	-221
▁-	-222
▁Per	-223
elah	-224
ai	-225
▁menjadi	-226
ikan	-227
orang	-228
tan	-229
ferensi	-230
og	-231
lan	-232
itu	-233
angan	-234
ua	-235
iliki	-236
▁Referensi	-237
ain	-238
ali	-239
abu	-240
atau	-241
▁201	-242
▁pro	-243
▁seb	-244
▁luar	-245
▁satu	-246
ila	-247
▁memiliki	-248
▁atau	-249
any	-250
▁o	-251
onal	-252
▁An	-253
▁sp	-254
yah	-255
ika	-256
paten	-257
ber	-258
▁pem	-259
abupaten	-260
ch	-261
ilm	-262
od	-263
▁bagian	-264
▁Pranala	-265
▁|	-266
▁kec	-267
ana	-268
.,	-269
▁Am	-270
▁As	-271
▁a	-272
op	-273
etak	-274
entuk	-275
▁V	-276
▁desa	-277
int	-278
▁pert	-279
angg	-280
▁Al	-281
ist	-282
▁terl	-283
ebut	-284
),	-285
esies	-286
vin	-287
idak	-288
▁dis	-289
ni	-290
▁Kabupaten	-291
uan	-292
aan	-293
tar	-294
▁Da	-295
lanet	-296
19	-297
ukan	-298
▁3	-299
ew	-300
▁tidak	-301
vinsi	-302
).	-303
▁salah	-304
jar	-305
▁terletak	-306
ov	-307
▁Pro	-308
▁Ch	-309
▁peng	-310
ilayah	-311
▁sek	-312
eri	-313
ay	-314
▁The	-315
uda	-316
▁Desa	-317
ahasa	-318
▁Sep	-319
▁Sela	-320
oh	-321
▁dik	-322
ori	-323
▁of	-324
▁ia	-325
atas	-326
empat	-327
▁Pada	-328
▁Pem	-329
angk	-330
▁kota	-331
ons	-332
▁or	-333
▁kecamatan	-334
ac	-335
bit	-336
▁kar	-337
sit	-338
arat	-339
ola	-340
end	-341
le	-342
▁Se	-343
▁v	-344
ian	-345
▁itu	-346
gun	-347
amb	-348
▁Di	-349
0.	-350
▁sem	-351
ena	-352
udi	-353
elur	-354
▁spesies	-355
▁wilayah	-356
lu	-357
▁199	-358
man	-359
▁seorang	-360
▁meny	-361
▁(2	-362
cara	-363
tern	-364
erap	-365
▁besar	-366
imur	-367
era	-368
anj	-369
▁Sp	-370
re	-371
▁pertama	-372
▁Kec	-373
enal	-374
ma	-375
▁ak	-376
diri	-377
ahari	-378
▁dit	-379
▁Uni	-380
ftar	-381
▁kem	-382
▁lain	-383
dia	-384
uj	-385
▁terb	-386
uduk	-387
li	-388
▁mat	-389
▁pend	-390
▁mela	-391
las	-392
▁Kota	-393
▁Amer	-394
▁ters	-395
apat	-396
▁Ia	-397
art	-398
omp	-399
▁ser	-400
▁Kecamatan	-401
ember	-402
lak	-403
anyak	-404
▁dapat	-405
egara	-406
eka	-407
▁Ar	-408
▁planet	-409
awa	-410
▁set	-411
aya	-412
ob	-413
▁4	-414
ib	-415
ingga	-416
▁(19	-417
▁Ser	-418
sa	-419
▁matahari	-420
aran	-421
ver	-422
aman	-423
perti	-424
to	-425
▁um	-426
gu	-427
ard	-428
gunakan	-429
inya	-430
2.	-431
engah	-432
enter	-433
ebula	-434
▁nebula	-435
▁nama	-436
alan	-437
gr	-438
▁seperti	-439
▁sep	-440
▁Daftar	-441
▁ket	-442
▁secara	-443
iter	-444
uatu	-445
ea	-446
arta	-447
umnya	-448
▁bi	-449
▁ut	-450
▁ant	-451
ingk	-452
ebih	-453
unan	-454
▁sela	-455
arang	-456
▁pr	-457
sitas	-458
anda	-459
▁kep	-460
▁5	-461
erah	-462
api	-463
▁sebesar	-464
ev	-465
▁tersebut	-466
onom	-467
erti	-468
est	-469
▁Ut	-470
ina	-471
▁Jawa	-472
asil	-473
▁al	-474
▁mas	-475
iga	-476
▁dip	-477
alia	-478
▁Amerika	-479
emp	-480
ks	-481
▁Intern	-482
ug	-483
▁18	-484
▁Pen	-485
▁Mar	-486
asional	-487
▁Timur	-488
itas	-489
ill	-490
▁Ber	-491
erapa	-492
▁()	-493
ungan	-494
bum	-495
eberapa	-496
▁orang	-497
▁bahasa	-498
unia	-499
st	-500
▁berk	-501
▁lebih	-502
uran	-503
ow	-504
ses	-505
▁So	-506
dapat	-507
▁Provinsi	-508
entara	-509
▁ker	-510
▁penduduk	-511
idae	-512
▁Asteroid	-513
▁da	-514
han	-515
▁Seperti	-516
ulai	-517
▁Min	-518
▁berada	-519
ig	-520
hir	-521
▁an	-522
▁Selatan	-523
▁Ap	-524
jak	-525
raf	-526
ikat	-527
▁Is	-528
ingg	-529
tasi	-530
uku	-531
▁dib	-532
ita	-533
th	-534
iwa	-535
ili	-536
▁musi	-537
osi	-538
▁berb	-539
▁ya	-540
olo	-541
▁sen	-542
ational	-543
ont	-544
orm	-545
▁St	-546
udian	-547
▁Dem	-548
▁kali	-549
imp	-550
▁yaitu	-551
ode	-552
mas	-553
▁karena	-554
▁6	-555
▁telah	-556
umlah	-557
itar	-558
▁Utara	-559
▁Ba	-560
anggal	-561
jarah	-562
▁ses	-563
▁orbit	-564
▁198	-565
▁kes	-566
angkan	-567
aru	-568
▁antara	-569
▁berm	-570
usia	-571
▁Pr	-572
▁Barat	-573
olah	-574
na	-575
▁bola	-576
hi	-577
ubah	-578
▁Ac	-579
lo	-580
▁mel	-581
▁||	-582
▁provinsi	-583
rop	-584
gan	-585
erint	-586
▁mereka	-587
▁banyak	-588
▁kel	-589
nit	-590
▁pula	-591
usah	-592
▁memb	-593
cat	-594
▁jiwa	-595
uhan	-596
▁saat	-597
ha	-598
▁7	-599
eda	-600
wan	-601
▁tanggal	-602
▁2000	-603
▁Serikat	-604
olong	-605
▁bers	-606
▁film	-607
▁kelas	-608
▁Pemb	-609
▁dikenal	-610
tor	-611
ust	-612
ju	-613
▁Film	-614
▁tet	-615
▁Z	-616
▁muda	-617
uas	-618
▁beberapa	-619
duk	-620
dikan	-621
elurahan	-622
upiter	-623
▁sepak	-624
▁the	-625
ograf	-626
ck	-627
ell	-628
▁Sum	-629
▁peny	-630
▁kemudian	-631
▁sementara	-632
▁negara	-633
8.	-634
mi	-635
ern	-636
arkan	-637
▁Br	-638
catat	-639
▁International	-640
▁setelah	-641
▁La	-642
ulis	-643
▁tempat	-644
▁terg	-645
tu	-646
ukup	-647
unya	-648
ingan	-649
if	-650
▁dir	-651
▁hingga	-652
▁umumnya	-653
arak	-654
ihat	-655
cis	-656
ine	-657
▁cukup	-658
ikut	-659
▁km	-660
entukan	-661
▁SM	-662
▁berp	-663
ima	-664
▁menc	-665
son	-666
do	-667
▁2011	-668
ce	-669
▁Bo	-670
bagian	-671
ne	-672
▁Ag	-673
osp	-674
buat	-675
ue	-676
asanya	-677
▁atas	-678
akarta	-679
ologi	-680
tur	-681
fera	-682
▁197	-683
lahir	-684
omun	-685
▁Or	-686
▁Band	-687
egeri	-688
dir	-689
▁dua	-690
▁dim	-691
▁tergolong	-692
▁Eks	-693
lik	-694
udo	-695
▁perm	-696
▁–	-697
▁Ter	-698
ical	-699
▁mag	-700
▁Bel	-701
asal	-702
tronom	-703
lam	-704
▁Pori	-705
▁Porifera	-706
▁Tengah	-707
▁samp	-708
lui	-709
▁berubah	-710
ingkat	-711
▁disebut	-712
▁Nama	-713
idup	-714
inggal	-715
emen	-716
istr	-717
▁Center	-718
▁bah	-719
ulan	-720
lub	-721
▁tercatat	-722
▁Pemain	-723
ei	-724
▁digunakan	-725
ki	-726
▁lagu	-727
ografi	-728
inggi	-729
ci	-730
ani	-731
aj	-732
▁terbentuk	-733
-1	-734
ekat	-735
nitudo	-736
ld	-737
asan	-738
antan	-739
ongia	-740
ggr	-741
umi	-742
intang	-743
▁akan	-744
aris	-745
ind	-746
▁Union	-747
5.	-748
imor	-749
usun	-750
engg	-751
▁Prancis	-752
▁mut	-753
mal	-754
ggris	-755
▁ked	-756
▁Mas	-757
▁magnitudo	-758
▁daerah	-759
▁Sa	-760
▁bert	-761
▁Sek	-762
▁Planet	-763
entri	-764
▁air	-765
▁Jep	-766
ini	-767
▁melalui	-768
▁0.	-769
den	-770
▁biasanya	-771
angs	-772
▁sekitar	-773
▁Astronom	-774
▁(201	-775
ku	-776
▁8	-777
▁Minor	-778
▁mutlak	-779
▁Ok	-780
ospongia	-781
▁Sh	-782
enda	-783
▁ar	-784
entrisitas	-785
▁Eksentrisitas	-786
▁mutlaknya	-787
▁Astronomical	-788
▁Aceh	-789
▁sesuatu	-790
▁pec	-791
asar	-792
lat	-793
▁Inggris	-794
sia	-795
ka	-796
▁masa	-797
ungai	-798
▁Tro	-799
orld	-800
3.	-801
ge	-802
alat	-803
▁Yupiter	-804
▁terdiri	-805
usat	-806
▁Kep	-807
ation	-808
ospongiae	-809
▁Demospongiae	-810
▁&	-811
ort	-812
rans	-813
ui	-814
▁Pembentukan	-815
▁sampai	-816
▁II	-817
amili	-818
eks	-819
ilis	-820
▁9	-821
usahaan	-822
▁196	-823
dara	-824
masuk	-825
dial	-826
awal	-827
▁dunia	-828
▁ilm	-829
aja	-830
ies	-831
yat	-832
▁angg	-833
▁Dalam	-834
▁Kal	-835
▁Jepang	-836
und	-837
".	-838
▁sejak	-839
angga	-840
▁spons	-841
erman	-842
▁tetapi	-843
▁pecahan	-844
▁Ke	-845
lin	-846
▁famili	-847
buh	-848
didikan	-849
esmi	-850
▁sel	-851
▁de	-852
tober	-853
ump	-854
imordial	-855
▁primordial	-856
isimal	-857
▁planetisimal	-858
▁dekat	-859
▁diter	-860
ura	-861
▁sebel	-862
▁Univer	-863
0,	-864
de	-865
▁Sejarah	-866
jaan	-867
jo	-868
▁Men	-869
▁and	-870
▁Oktober	-871
utra	-872
▁bermain	-873
▁sang	-874
▁(200	-875
itus	-876
▁utama	-877
▁pern	-878
iah	-879
arier	-880
▁ra	-881
▁Troya	-882
go	-883
▁Selain	-884
▁serta	-885
asih	-886
unc	-887
▁=	-888
▁luas	-889
▁terk	-890
eran	-891
tember	-892
▁Pi	-893
bad	-894
-2	-895
▁album	-896
4.	-897
▁Ang	-898
se	-899
uari	-900
▁bahwa	-901
urut	-902
▁ad	-903
▁Negeri	-904
▁tan	-905
dirikan	-906
enis	-907
▁anak	-908
atal	-909
▁musik	-910
ulu	-911
arga	-912
uni	-913
ast	-914
▁anggota	-915
itik	-916
▁September	-917
1.	-918
▁pemerint	-919
erb	-920
nama	-921
awah	-922
all	-923
▁awal	-924
▁Peng	-925
tif	-926
▁pemb	-927
eter	-928
anjang	-929
02	-930
▁sed	-931
▁Spesies	-932
okoh	-933
ord	-934
apai	-935
▁st	-936
iny	-937
▁Kar	-938
▁Kr	-939
isa	-940
▁Man	-941
ark	-942
▁Set	-943
me	-944
awan	-945
▁Dia	-946
itan	-947
▁Le	-948
▁tim	-949
▁termasuk	-950
▁pemain	-951
▁ja	-952
eta	-953
udara	-954
▁Ge	-955
ff	-956
ublik	-957
ou	-958
▁lainnya	-959
tai	-960
▁i	-961
uka	-962
ecies	-963
▁Jakarta	-964
▁berasal	-965
aling	-966
▁Jerman	-967
form	-968
annya	-969
eluruhan	-970
bitkan	-971
▁It	-972
gen	-973
7.	-974
▁pes	-975
6.	-976
aka	-977
ase	-978
aktu	-979
▁sangat	-980
▁terdapat	-981
ukaan	-982
▁komp	-983
disi	-984
ual	-985
min	-986
▁Baill	-987
▁keseluruhan	-988
uc	-989
isti	-990
▁Tip	-991
▁pernah	-992
▁fil	-993
▁(1	-994
▁bersama	-995
▁Amor	-996
utan	-997
umah	-998
▁diper	-999
..	-1000
▁mengh	-1001
ond	-1002
▁tu	-1003
inda	-1004
ton	-1005
▁memp	-1006
▁hanya	-1007
▁proses	-1008
▁Air	-1009
▁22	-1010
▁Ma	-1011
▁suatu	-1012
▁resmi	-1013
▁Ro	-1014
▁selama	-1015
impin	-1016
istem	-1017
bat	-1018
▁Pa	-1019
▁para	-1020
▁bumi	-1021
▁klub	-1022
▁Sumat	-1023
▁mulai	-1024
atasan	-1025
das	-1026
▁Apol	-1027
amun	-1028
▁tel	-1029
▁barat	-1030
tasiun	-1031
omune	-1032
▁Lihat	-1033
ilip	-1034
▁kepada	-1035
▁10	-1036
▁kedua	-1037
▁World	-1038
▁Apollo	-1039
▁menggunakan	-1040
yan	-1041
▁jumlah	-1042
ersi	-1043
▁diterbitkan	-1044
▁195	-1045
▁Belanda	-1046
entang	-1047
▁Ph	-1048
iran	-1049
ilan	-1050
edia	-1051
▁ag	-1052
ers	-1053
▁En	-1054
▁permukaan	-1055
▁pela	-1056
▁Kor	-1057
ich	-1058
pan	-1059
unj	-1060
▁kecil	-1061
▁Ban	-1062
ulau	-1063
▁24	-1064
red	-1065
▁12	-1066
ens	-1067
6,	-1068
▁Un	-1069
▁bernama	-1070
uli	-1071
adang	-1072
▁asal	-1073
▁pol	-1074
unt	-1075
▁gen	-1076
▁seh	-1077
itab	-1078
amanya	-1079
ilih	-1080
ve	-1081
▁tert	-1082
esiden	-1083
ikasi	-1084
ustr	-1085
awat	-1086
▁Kem	-1087
▁tubuh	-1088
▁Seb	-1089
oda	-1090
▁Mus	-1091
▁Pol	-1092
▁utara	-1093
▁Sekolah	-1094
▁perusahaan	-1095
▁sebelah	-1096
apan	-1097
000	-1098
▁San	-1099
▁kelurahan	-1100
pa	-1101
eja	-1102
atur	-1103
elas	-1104
▁man	-1105
4,	-1106
▁bawah	-1107
ca	-1108
9.	-1109
▁194	-1110
isasi	-1111
uara	-1112
▁batu	-1113
▁pop	-1114
▁akhir	-1115
▁Th	-1116
▁15	-1117
ide	-1118
▁Lalat	-1119
erajaan	-1120
▁menja	-1121
▁keluar	-1122
dom	-1123
eker	-1124
ampong	-1125
▁Rep	-1126
▁masih	-1127
▁hari	-1128
gab	-1129
yarak	-1130
▁berh	-1131
▁Mer	-1132
uru	-1133
arti	-1134
▁Ti	-1135
▁ordo	-1136
▁Sumatera	-1137
2,	-1138
ess	-1139
▁17	-1140
▁paling	-1141
ry	-1142
.)	-1143
▁Ab	-1144
oc	-1145
▁at	-1146
▁sama	-1147
▁memper	-1148
our	-1149
▁X	-1150
▁dirilis	-1151
▁Pulau	-1152
engk	-1153
▁mana	-1154
udah	-1155
atalog	-1156
emukan	-1157
▁Sem	-1158
▁Sin	-1159
omb	-1160
▁z	-1161
▁New	-1162
▁kemb	-1163
▁Anim	-1164
▁selatan	-1165
upun	-1166
▁berbagai	-1167
▁Italia	-1168
duksi	-1169
▁ilmiah	-1170
▁Ka	-1171
▁2007	-1172
yarakat	-1173
▁Kalim	-1174
0-	-1175
▁Universitas	-1176
▁Album	-1177
evisi	-1178
inta	-1179
ore	-1180
0)	-1181
▁Ket	-1182
sis	-1183
▁baru	-1184
▁Q	-1185
▁Ak	-1186
▁Pert	-1187
ampung	-1188
▁At	-1189
▁11	-1190
▁tiga	-1191
▁dia	-1192
jek	-1193
▁gel	-1194
emba	-1195
aki	-1196
▁terkenal	-1197
9,	-1198
unung	-1199
angunan	-1200
usan	-1201
▁Piala	-1202
▁Des	-1203
dasarkan	-1204
3,	-1205
▁berj	-1206
▁waktu	-1207
▁bulan	-1208
▁abad	-1209
ho	-1210
buhan	-1211
▁timur	-1212
▁Jan	-1213
▁Kalimantan	-1214
inal	-1215
▁didirikan	-1216
akhir	-1217
bagi	-1218
enc	-1219
adap	-1220
▁ketika	-1221
▁Dunia	-1222
angun	-1223
ef	-1224
▁laut	-1225
▁van	-1226
5,	-1227
IS	-1228
ekn	-1229
perasi	-1230
▁Ros	-1231
▁sistem	-1232
▁hidup	-1233
▁Sur	-1234
▁filum	-1235
iap	-1236
▁tinggi	-1237
▁pusat	-1238
▁Situs	-1239
▁keras	-1240
ity	-1241
▁ibu	-1242
8,	-1243
oksi	-1244
▁Setelah	-1245
uang	-1246
▁Data	-1247
▁Animalia	-1248
▁16	-1249
angkat	-1250
uruh	-1251
▁Sungai	-1252
iri	-1253
▁Gr	-1254
erbangan	-1255
by	-1256
anyi	-1257
angka	-1258
▁lahir	-1259
▁kh	-1260
▁rumah	-1261
▁sering	-1262
▁Rom	-1263
▁Ad	-1264
ungk	-1265
te	-1266
▁Austr	-1267
▁Dusun	-1268
▁ma	-1269
1,	-1270
▁tinggal	-1271
▁kabupaten	-1272
enggara	-1273
ory	-1274
▁Bat	-1275
atif	-1276
▁|-	-1277
▁pas	-1278
▁Republik	-1279
rom	-1280
angsa	-1281
▁ga	-1282
▁Ku	-1283
▁Bandar	-1284
▁re	-1285
war	-1286
▁Wo	-1287
ingdom	-1288
▁put	-1289
▁kon	-1290
▁Nor	-1291
▁seri	-1292
▁/	-1293
▁sehingga	-1294
ht	-1295
▁Bi	-1296
idang	-1297
▁2008.	-1298
▁Co	-1299
▁Tipul	-1300
ropa	-1301
▁Tipulidae	-1302
▁membuat	-1303
bjek	-1304
▁Nov	-1305
▁bisa	-1306
ick	-1307
▁terh	-1308
▁sudah	-1309
ly	-1310
osisi	-1311
▁pemerintahan	-1312
▁sekolah	-1313
▁kingdom	-1314
▁masyarakat	-1315
▁Pag	-1316
ender	-1317
urn	-1318
▁kata	-1319
▁terjadi	-1320
▁bela	-1321
ompok	-1322
isme	-1323
land	-1324
▁Car	-1325
▁Sen	-1326
▁Eropa	-1327
▁2012.	-1328
▁Bar	-1329
▁Mat	-1330
▁(199	-1331
▁trans	-1332
▁musim	-1333
▁bagi	-1334
▁karier	-1335
ril	-1336
MS	-1337
▁oksi	-1338
kl	-1339
base	-1340
uv	-1341
▁terp	-1342
▁Kelurahan	-1343
ex	-1344
▁sebelum	-1345
▁Sam	-1346
▁pendidikan	-1347
▁kons	-1348
▁televisi	-1349
gabung	-1350
▁berbatasan	-1351
ebr	-1352
tera	-1353
ile	-1354
▁band	-1355
yo	-1356
▁sebagian	-1357
▁Tiong	-1358
▁suku	-1359
▁1.	-1360
▁sub	-1361
alur	-1362
▁Sy	-1363
▁keb	-1364
adi	-1365
eum	-1366
ibat	-1367
▁14	-1368
▁prof	-1369
▁din	-1370
▁tentang	-1371
▁)	-1372
▁Li	-1373
▁Korea	-1374
ahkan	-1375
ial	-1376
▁sendiri	-1377
one	-1378
▁dif	-1379
▁13	-1380
▁Udara	-1381
▁versi	-1382
▁umum	-1383
▁Rusia	-1384
ban	-1385
ife	-1386
▁Joh	-1387
co	-1388
▁Mal	-1389
▁2010	-1390
▁mendapat	-1391
▁pan	-1392
▁kur	-1393
▁Kir	-1394
iss	-1395
▁Ins	-1396
▁Raja	-1397
▁Mala	-1398
▁Tim	-1399
▁dil	-1400
▁Ger	-1401
▁kembali	-1402
▁oksigen	-1403
▁pulau	-1404
ministr	-1405
▁El	-1406
",	-1407
▁Nic	-1408
▁penerbangan	-1409
▁Af	-1410
▁Sw	-1411
▁Database	-1412
rab	-1413
▁Mei	-1414
▁sebanyak	-1415
▁Juli	-1416
FA	-1417
angsung	-1418
▁Pan	-1419
▁Aw	-1420
▁terbesar	-1421
▁Dip	-1422
▁udara	-1423
ask	-1424
ulasi	-1425
▁Raya	-1426
▁berarti	-1427
ami	-1428
ewan	-1429
▁Bahasa	-1430
="	-1431
▁Sch	-1432
▁ro	-1433
aria	-1434
esk	-1435
▁nasional	-1436
tiv	-1437
▁Bis	-1438
inan	-1439
▁perk	-1440
7,	-1441
alitas	-1442
▁gr	-1443
▁kap	-1444
▁Sula	-1445
epat	-1446
▁ialah	-1447
▁Islam	-1448
araan	-1449
▁jenis	-1450
▁menyerap	-1451
ona	-1452
▁pesawat	-1453
tas	-1454
ept	-1455
ate	-1456
▁India	-1457
▁Desember	-1458
▁mod	-1459
ading	-1460
▁Mo	-1461
▁Soest	-1462
por	-1463
ting	-1464
▁kom	-1465
ulauan	-1466
unisi	-1467
▁Agust	-1468
▁dilak	-1469
ekerja	-1470
berikan	-1471
▁.	-1472
▁sej	-1473
trik	-1474
▁Perang	-1475
laba	-1476
▁Juni	-1477
▁Life	-1478
▁difusi	-1479
istrik	-1480
▁UK	-1481
za	-1482
▁Tel	-1483
▁2008	-1484
ron	-1485
ira	-1486
▁Ked	-1487
▁berpori	-1488
RMS	-1489
▁karya	-1490
▁WoRMS	-1491
ij	-1492
▁seluruh	-1493
▁bentuk	-1494
ish	-1495
gram	-1496
▁bintang	-1497
▁dig	-1498
phi	-1499
▁SD	-1500
unani	-1501
1).	-1502
-19	-1503
3)	-1504
▁Ann	-1505
▁193	-1506
ukum	-1507
unyai	-1508
edi	-1509
ungg	-1510
eph	-1511
▁bu	-1512
▁web	-1513
bab	-1514
wesi	-1515
▁tum	-1516
yu	-1517
sk	-1518
Sp	-1519
▁memulai	-1520
▁Maret	-1521
artai	-1522
▁ek	-1523
▁sekarang	-1524
utradara	-1525
▁pet	-1526
▁,	-1527
▁Liny	-1528
▁Kat	-1529
men	-1530
▁SMA	-1531
▁Januari	-1532
akai	-1533
▁Agustus	-1534
▁IT	-1535
uti	-1536
▁terhadap	-1537
▁Presiden	-1538
▁Hal	-1539
▁April	-1540
▁mengg	-1541
▁Sulawesi	-1542
▁mempunyai	-1543
▁Krist	-1544
phiidae	-1545
▁Linyphiidae	-1546
▁Yunani	-1547
5)	-1548
▁Har	-1549
▁politik	-1550
▁dep	-1551
▁Arth	-1552
akses	-1553
imb	-1554
2)	-1555
usus	-1556
kapai	-1557
▁tak	-1558
uter	-1559
empuan	-1560
kov	-1561
▁mil	-1562
atang	-1563
6)	-1564
1)	-1565
ass	-1566
▁Ib	-1567
ambil	-1568
agu	-1569
▁20	-1570
ganisasi	-1571
▁meninggal	-1572
▁bidang	-1573
asti	-1574
▁Nasional	-1575
▁Bour	-1576
av	-1577
▁hal	-1578
4)	-1579
▁ap	-1580
enduduk	-1581
upa	-1582
unisip	-1583
▁Baru	-1584
AR	-1585
enteri	-1586
▁tra	-1587
▁Musi	-1588
▁Tan	-1589
▁Sec	-1590
▁Wilayah	-1591
truk	-1592
unisipalitas	-1593
nis	-1594
▁intern	-1595
▁Par	-1596
▁jalan	-1597
▁dih	-1598
oa	-1599
▁keluarga	-1600
▁penyanyi	-1601
▁berikut	-1602
okal	-1603
▁Dr	-1604
▁De	-1605
▁Menteri	-1606
▁en	-1607
rit	-1608
▁Para	-1609
oy	-1610
sik	-1611
▁Tokoh	-1612
ny	-1613
▁sejarah	-1614
▁And	-1615
onomi	-1616
▁lemba	-1617
anyol	-1618
erang	-1619
▁Asia	-1620
▁makan	-1621
unus	-1622
▁Mak	-1623
▁sum	-1624
omor	-1625
▁tanah	-1626
▁Ir	-1627
les	-1628
rell	-1629
▁Pendidikan	-1630
▁Kan	-1631
▁Nicol	-1632
▁Bur	-1633
▁te	-1634
qu	-1635
▁baik	-1636
▁Kirk	-1637
▁Laut	-1638
idupan	-1639
indah	-1640
oto	-1641
ey	-1642
▁sebelumnya	-1643
inasi	-1644
▁Chec	-1645
jalan	-1646
▁Species	-1647
iman	-1648
▁distrik	-1649
eli	-1650
▁mend	-1651
enang	-1652
uler	-1653
erita	-1654
8)	-1655
▁Gunung	-1656
orn	-1657
ecta	-1658
anjung	-1659
▁November	-1660
▁Reading	-1661
arge	-1662
▁dibuat	-1663
▁Ada	-1664
awasan	-1665
▁Catalog	-1666
anc	-1667
▁Komune	-1668
▁2000:	-1669
elum	-1670
▁berdasarkan	-1671
▁Seri	-1672
ie	-1673
▁Diakses	-1674
kukan	-1675
▁Sta	-1676
▁Ker	-1677
▁manusia	-1678
▁har	-1679
▁Ind	-1680
▁'	-1681
▁Americ	-1682
▁Keb	-1683
▁Cat	-1684
▁Fran	-1685
▁lalat	-1686
ropoda	-1687
eptunus	-1688
▁Namun	-1689
rard	-1690
anggap	-1691
▁(2011).	-1692
7)	-1693
aksi	-1694
▁Pal	-1695
embang	-1696
▁pengh	-1697
▁Catalogue	-1698
▁zaman	-1699
▁api	-1700
▁Spanyol	-1701
▁bekerja	-1702
▁Annual	-1703
.".	-1704
9)	-1705
mad	-1706
▁stasiun	-1707
ger	-1708
▁sungai	-1709
▁Arthropoda	-1710
klist	-1711
▁Nicolson	-1712
goin	-1713
▁Diptera	-1714
▁Checklist	-1715
▁Bailly	-1716
ork	-1717
▁Insecta	-1718
▁Bourgoin	-1719
▁Ouv	-1720
argeon	-1721
▁Baillargeon	-1722
▁ITIS	-1723
Species	-1724
▁Roskov	-1725
▁Bisby	-1726
linawan	-1727
▁Orrell	-1728
▁Kepulauan	-1729
▁Paglinawan	-1730
▁Ouvrard	-1731
▁192	-1732
▁menjabat	-1733
▁pers	-1734
▁kal	-1735
▁0	-1736
mp	-1737
▁semua	-1738
ulang	-1739
▁kaki	-1740
▁Tr	-1741
▁Febr	-1742
50	-1743
kok	-1744
▁genus	-1745
▁dr	-1746
urkan	-1747
ektur	-1748
lor	-1749
ubungan	-1750
▁Philip	-1751
artemen	-1752
ujuan	-1753
isata	-1754
▁Su	-1755
▁melakukan	-1756
▁masuk	-1757
aranya	-1758
etah	-1759
ji	-1760
aringan	-1761
▁Tenggara	-1762
▁Col	-1763
akit	-1764
▁grup	-1765
ite	-1766
▁gelar	-1767
▁Kerajaan	-1768
andang	-1769
▁on	-1770
▁raja	-1771
▁dilakukan	-1772
okasi	-1773
▁perempuan	-1774
▁Tahun	-1775
▁Februari	-1776
ith	-1777
▁administr	-1778
udul	-1779
▁2006	-1780
▁Si	-1781
▁biasa	-1782
▁Kom	-1783
andingan	-1784
uasa	-1785
▁Museum	-1786
zi	-1787
▁Lat	-1788
eae	-1789
baik	-1790
▁Gu	-1791
▁2009	-1792
argaan	-1793
II	-1794
su	-1795
▁bin	-1796
uri	-1797
awi	-1798
ino	-1799
▁bergabung	-1800
arah	-1801
san	-1802
▁eks	-1803
IN	-1804
tion	-1805
dis	-1806
▁Dis	-1807
▁keh	-1808
▁penc	-1809
▁Pemerint	-1810
▁(198	-1811
olog	-1812
isah	-1813
▁Il	-1814
landia	-1815
dana	-1816
erta	-1817
▁Menurut	-1818
▁diri	-1819
oro	-1820
iti	-1821
aruh	-1822
▁ger	-1823
▁posisi	-1824
esin	-1825
ultan	-1826
uno	-1827
▁objek	-1828
▁No	-1829
▁Mah	-1830
▁Beberapa	-1831
com	-1832
▁berl	-1833
▁lagi	-1834
af	-1835
unjuk	-1836
▁202	-1837
▁Alk	-1838
iet	-1839
▁John	-1840
bawa	-1841
dion	-1842
va	-1843
AN	-1844
▁ditemukan	-1845
▁yak	-1846
▁Pes	-1847
▁Lagu	-1848
▁setiap	-1849
ania	-1850
▁tokoh	-1851
uth	-1852
▁Trans	-1853
org	-1854
▁Kel	-1855
▁Arab	-1856
ros	-1857
▁kelompok	-1858
▁pel	-1859
of	-1860
▁art	-1861
embangan	-1862
▁Sel	-1863
▁ind	-1864
▁Internasional	-1865
▁ditulis	-1866
▁el	-1867
operasi	-1868
▁Mad	-1869
▁mengen	-1870
▁Hist	-1871
▁gampong	-1872
ungsi	-1873
▁Me	-1874
▁hasil	-1875
▁Kristen	-1876
▁lalu	-1877
▁Liga	-1878
▁alam	-1879
▁Suk	-1880
fikasi	-1881
▁Tiongkok	-1882
▁Go	-1883
▁Philipp	-1884
adan	-1885
ys	-1886
itania	-1887
10	-1888
▁mener	-1889
▁terakhir	-1890
▁American	-1891
▁populasi	-1892
▁agama	-1893
▁empat	-1894
▁Ha	-1895
ainan	-1896
ingel	-1897
▁jalur	-1898
ustri	-1899
▁Bay	-1900
akyat	-1901
▁yakni	-1902
usaha	-1903
ysia	-1904
ideo	-1905
12	-1906
urunan	-1907
vi	-1908
antikan	-1909
▁Sup	-1910
▁acara	-1911
ipun	-1912
▁Kes	-1913
ider	-1914
▁Mon	-1915
roduksi	-1916
▁Australia	-1917
unda	-1918
▁kereta	-1919
▁dasar	-1920
tik	-1921
▁2012	-1922
▁Stasiun	-1923
▁mencapai	-1924
▁Pembagian	-1925
emi	-1926
ampil	-1927
▁Daerah	-1928
▁khusus	-1929
▁:	-1930
▁kurang	-1931
▁Negara	-1932
▁Angk	-1933
visi	-1934
▁Prof	-1935
▁berhasil	-1936
▁Batas	-1937
ary	-1938
▁Alkitab	-1939
ment	-1940
atakan	-1941
▁2.	-1942
▁Kon	-1943
▁tradisi	-1944
teri	-1945
wi	-1946
▁maupun	-1947
▁jaringan	-1948
▁Inform	-1949
▁TV	-1950
▁perb	-1951
▁berbeda	-1952
▁City	-1953
ema	-1954
eder	-1955
▁FC	-1956
res	-1957
bahasa	-1958
▁Filip	-1959
▁seni	-1960
▁Secara	-1961
▁Wil	-1962
▁ayah	-1963
uncul	-1964
rat	-1965
▁Saat	-1966
obil	-1967
alnya	-1968
▁Em	-1969
iode	-1970
▁panjang	-1971
▁dic	-1972
▁Malaysia	-1973
▁ku	-1974
▁Pas	-1975
▁Penduduk	-1976
▁kode	-1977
ebab	-1978
urg	-1979
aks	-1980
▁makanan	-1981
▁tekn	-1982
▁for	-1983
▁ka	-1984
▁Bandung	-1985
▁Britania	-1986
▁Ben	-1987
▁ilmu	-1988
eskipun	-1989
▁dibangun	-1990
▁penduduknya	-1991
rika	-1992
but	-1993
utama	-1994
▁Pang	-1995
▁Sal	-1996
ime	-1997
▁to	-1998
▁sekali	-1999
▁dianggap	-2000
▁30	-2001
▁Be	-2002
bert	-2003
ost	-2004
▁memen	-2005
aku	-2006
usa	-2007
▁Dan	-2008
angi	-2009
ral	-2010
atian	-2011
▁Jalan	-2012
▁Ed	-2013
▁Gen	-2014
▁Com	-2015
▁Pet	-2016
▁Wal	-2017
akar	-2018
ria	-2019
▁Dengan	-2020
rip	-2021
jaran	-2022
▁10.	-2023
▁pemerintah	-2024
▁25	-2025
ugas	-2026
▁Pe	-2027
▁e	-2028
jid	-2029
▁kepala	-2030
isar	-2031
▁Philippine	-2032
hy	-2033
▁History	-2034
▁internasional	-2035
ute	-2036
ikuti	-2037
▁Bal	-2038
ren	-2039
▁dusun	-2040
▁namun	-2041
bo	-2042
jah	-2043
yar	-2044
kang	-2045
ebar	-2046
ora	-2047
▁Kap	-2048
▁terbagi	-2049
▁2001	-2050
urat	-2051
no	-2052
uki	-2053
▁Mereka	-2054
▁Her	-2055
olik	-2056
beri	-2057
dang	-2058
imia	-2059
In	-2060
30	-2061
utradarai	-2062
▁tengah	-2063
truktur	-2064
▁langsung	-2065
▁sumber	-2066
▁Ibu	-2067
▁penting	-2068
▁Mic	-2069
▁Filipina	-2070
har	-2071
her	-2072
▁Muh	-2073
▁ketiga	-2074
ney	-2075
▁FI	-2076
▁Pur	-2077
▁komune	-2078
▁He	-2079
illa	-2080
ongan	-2081
▁Te	-2082
istiwa	-2083
bi	-2084
ool	-2085
ella	-2086
antu	-2087
anita	-2088
▁Um	-2089
▁2005	-2090
▁Banjar	-2091
▁putra	-2092
▁Afrika	-2093
empuran	-2094
mer	-2095
▁keku	-2096
▁muncul	-2097
▁militer	-2098
amen	-2099
anan	-2100
ame	-2101
apkan	-2102
istilah	-2103
angsaan	-2104
▁mengenai	-2105
▁tumbuhan	-2106
▁penulis	-2107
age	-2108
amat	-2109
▁kawasan	-2110
▁kont	-2111
▁serial	-2112
cor	-2113
yang	-2114
▁akhirnya	-2115
anto	-2116
▁menga	-2117
▁kot	-2118
▁met	-2119
16	-2120
ement	-2121
▁Gampong	-2122
▁Ol	-2123
▁menurut	-2124
ulus	-2125
ez	-2126
▁Tur	-2127
site	-2128
istan	-2129
▁Kh	-2130
isan	-2131
tanian	-2132
stit	-2133
▁Gereja	-2134
iau	-2135
▁buku	-2136
ingin	-2137
▁harus	-2138
▁Catatan	-2139
dian	-2140
ensus	-2141
▁War	-2142
▁dimulai	-2143
▁To	-2144
ukuran	-2145
▁Partai	-2146
▁Karier	-2147
▁Distrik	-2148
udaya	-2149
iz	-2150
▁ot	-2151
ames	-2152
▁Untuk	-2153
▁menik	-2154
▁pertandingan	-2155
▁maka	-2156
▁Komp	-2157
ins	-2158
▁Ta	-2159
11	-2160
ilai	-2161
arian	-2162
▁Peny	-2163
ise	-2164
eksi	-2165
▁Din	-2166
▁mantan	-2167
▁istilah	-2168
una	-2169
ire	-2170
▁lama	-2171
▁Jupiter	-2172
▁terutama	-2173
vid	-2174
umb	-2175
▁periode	-2176
▁disutradarai	-2177
▁tingkat	-2178
-3	-2179
▁pendek	-2180
fat	-2181
TV	-2182
emui	-2183
icial	-2184
eman	-2185
▁Kepala	-2186
▁kapal	-2187
▁meter	-2188
oko	-2189
▁21	-2190
ley	-2191
▁membentuk	-2192
▁daftar	-2193
uju	-2194
▁0.0	-2195
▁hukum	-2196
antor	-2197
▁Dep	-2198
askah	-2199
istik	-2200
ubern	-2201
▁1999	-2202
▁situs	-2203
janj	-2204
asilkan	-2205
▁mendapatkan	-2206
▁Tanjung	-2207
jata	-2208
▁Padang	-2209
sip	-2210
alap	-2211
anyakan	-2212
▁My	-2213
▁berupa	-2214
▁juta	-2215
formasi	-2216
ganti	-2217
▁perang	-2218
▁Bu	-2219
ret	-2220
embangkan	-2221
▁Muham	-2222
ator	-2223
▁2004	-2224
▁pertamanya	-2225
atus	-2226
▁penggun	-2227
▁(197	-2228
ono	-2229
▁Mela	-2230
ash	-2231
▁Dir	-2232
▁2002	-2233
endah	-2234
▁Port	-2235
mo	-2236
▁Ho	-2237
ebabkan	-2238
elit	-2239
▁Can	-2240
ww	-2241
arakan	-2242
unga	-2243
▁kerajaan	-2244
18	-2245
▁York	-2246
ipt	-2247
lay	-2248
intangi	-2249
▁Ko	-2250
ohon	-2251
▁min	-2252
▁Pers	-2253
andar	-2254
AS	-2255
osa	-2256
▁Karang	-2257
lahan	-2258
udd	-2259
▁ge	-2260
▁Sk	-2261
ice	-2262
▁jarak	-2263
atural	-2264
14	-2265
pen	-2266
andia	-2267
15	-2268
ric	-2269
▁jauh	-2270
bul	-2271
▁Dari	-2272
arik	-2273
umen	-2274
▁bur	-2275
dah	-2276
▁juara	-2277
raga	-2278
▁administratif	-2279
gin	-2280
ayor	-2281
▁suara	-2282
▁(2010)	-2283
▁buah	-2284
▁awalnya	-2285
▁sedang	-2286
fa	-2287
▁pun	-2288
...	-2289
▁Na	-2290
eld	-2291
janjian	-2292
▁Keh	-2293
ner	-2294
laki	-2295
▁FIFA	-2296
itam	-2297
warna	-2298
old	-2299
uruf	-2300
uw	-2301
yak	-2302
▁ditemui	-2303
urun	-2304
▁bahan	-2305
▁program	-2306
mu	-2307
enar	-2308
▁war	-2309
▁III	-2310
▁Pusat	-2311
asis	-2312
▁mobil	-2313
▁Perusahaan	-2314
inc	-2315
▁Plat	-2316
▁Lab	-2317
via	-2318
▁Gro	-2319
▁Han	-2320
▁did	-2321
▁Sebelah	-2322
▁memberikan	-2323
rand	-2324
sh	-2325
▁Norman	-2326
▁Ng	-2327
ph	-2328
▁Con	-2329
▁dibentuk	-2330
▁23	-2331
giatan	-2332
▁Information	-2333
dag	-2334
ilihan	-2335
ker	-2336
num	-2337
▁data	-2338
▁Cal	-2339
▁Jos	-2340
▁Tak	-2341
rik	-2342
ungkin	-2343
▁berkeb	-2344
▁menikah	-2345
▁Mag	-2346
▁sedangkan	-2347
13	-2348
uruan	-2349
▁bangunan	-2350
lim	-2351
▁bangsa	-2352
▁Ra	-2353
▁munisipalitas	-2354
rap	-2355
▁ib	-2356
▁Es	-2357
▁Chr	-2358
alami	-2359
entu	-2360
▁rek	-2361
inggu	-2362
▁Besar	-2363
▁PT	-2364
▁drama	-2365
▁memenangkan	-2366
▁sejumlah	-2367
▁Kong	-2368
▁Pat	-2369
ean	-2370
asilitas	-2371
▁jam	-2372
pura	-2373
rael	-2374
▁Angkatan	-2375
anak	-2376
RI	-2377
▁mesin	-2378
ribu	-2379
▁negeri	-2380
▁bek	-2381
▁Bro	-2382
▁aktor	-2383
▁laki	-2384
▁Pap	-2385
▁mak	-2386
abang	-2387
oli	-2388
▁Pela	-2389
ye	-2390
▁Bank	-2391
▁Award	-2392
▁Den	-2393
chi	-2394
ukuh	-2395
adakan	-2396
lahraga	-2397
▁SMP	-2398
▁Gal	-2399
sen	-2400
uskan	-2401
enderal	-2402
gion	-2403
▁Sejak	-2404
inggian	-2405
sur	-2406
▁Abd	-2407
▁Sebagai	-2408
erd	-2409
▁Jaya	-2410
▁Pemeran	-2411
▁menemukan	-2412
▁Off	-2413
ephrit	-2414
mb	-2415
▁AS	-2416
▁wanita	-2417
▁Tephrit	-2418
▁Put	-2419
▁sosi	-2420
▁pindah	-2421
▁Bl	-2422
▁Met	-2423
▁lingk	-2424
▁lembap	-2425
asta	-2426
PS	-2427
▁lima	-2428
etik	-2429
▁keturunan	-2430
▁kul	-2431
▁Katolik	-2432
sus	-2433
▁Ini	-2434
▁berwarna	-2435
▁sepanjang	-2436
▁kol	-2437
rani	-2438
▁berkebangsaan	-2439
▁kab	-2440
▁Paris	-2441
▁Maskapai	-2442
48	-2443
sama	-2444
akil	-2445
▁26	-2446
au	-2447
jang	-2448
ubernur	-2449
▁sk	-2450
uai	-2451
▁belakang	-2452
▁Cor	-2453
atuan	-2454
▁mengan	-2455
anding	-2456
tih	-2457
ampir	-2458
▁et	-2459
uman	-2460
▁Agung	-2461
▁version	-2462
yn	-2463
▁tanpa	-2464
▁world	-2465
anjut	-2466
etahui	-2467
ts	-2468
▁Israel	-2469
juaraan	-2470
▁melawan	-2471
▁3.	-2472
ontoh	-2473
baya	-2474
40	-2475
egnum	-2476
anggung	-2477
sek	-2478
oni	-2479
ukit	-2480
nick	-2481
▁On	-2482
pe	-2483
▁laba	-2484
▁Fo	-2485
▁Bali	-2486
Neptunus	-2487
mat	-2488
17	-2489
ove	-2490
▁Natural	-2491
▁Bul	-2492
▁Lon	-2493
▁usia	-2494
ler	-2495
▁Cinta	-2496
▁dew	-2497
▁industri	-2498
▁Bab	-2499
▁Berikut	-2500
▁Romawi	-2501
▁27	-2502
ogy	-2503
▁tetap	-2504
gus	-2505
tt	-2506
ayu	-2507
▁mata	-2508
▁dem	-2509
jam	-2510
▁berdiri	-2511
ale	-2512
▁produksi	-2513
▁Geografi	-2514
udio	-2515
yanan	-2516
▁Du	-2517
▁28	-2518
▁bukan	-2519
▁Kedua	-2520
▁petani	-2521
▁kini	-2522
▁Tephritidae	-2523
ainkan	-2524
unty	-2525
olusi	-2526
▁asli	-2527
NI	-2528
▁hutan	-2529
▁pri	-2530
▁wisata	-2531
▁Res	-2532
▁Dasar	-2533
▁mengalami	-2534
▁sin	-2535
etisi	-2536
atori	-2537
▁fisi	-2538
▁<	-2539
▁Med	-2540
▁Aran	-2541
amad	-2542
ater	-2543
ital	-2544
▁2013	-2545
ubung	-2546
▁putih	-2547
ujukan	-2548
▁saja	-2549
▁pertanian	-2550
ight	-2551
▁Char	-2552
▁cara	-2553
▁IS	-2554
▁cerita	-2555
▁barang	-2556
▁2003	-2557
igh	-2558
▁Pengh	-2559
AT	-2560
▁Census	-2561
▁departemen	-2562
▁Laba	-2563
▁profesi	-2564
dus	-2565
▁ekonomi	-2566
lass	-2567
▁berjumlah	-2568
caya	-2569
▁Str	-2570
▁dok	-2571
▁Gre	-2572
ke	-2573
▁Sim	-2574
▁2010,	-2575
mark	-2576
encana	-2577
egal	-2578
iputi	-2579
▁Ex	-2580
abi	-2581
asaan	-2582
▁permainan	-2583
▁arah	-2584
▁Dar	-2585
▁Hasil	-2586
so	-2587
elengg	-2588
▁(;	-2589
▁Hin	-2590
ujuk	-2591
▁komun	-2592
▁Ri	-2593
▁model	-2594
▁catalog	-2595
▁10.5.	-2596
yi	-2597
uluh	-2598
25	-2599
▁spider	-2600
▁(2010):	-2601
▁Pertama	-2602
▁Platnick	-2603
▁Araneae	-2604
▁Kam	-2605
▁sta	-2606
▁Karena	-2607
▁Kons	-2608
▁Stadion	-2609
▁Yang	-2610
▁tradisional	-2611
ille	-2612
▁Riau	-2613
▁Pak	-2614
▁menuju	-2615
elenggarakan	-2616
▁Nusa	-2617
▁pantai	-2618
▁Sc	-2619
▁daya	-2620
200	-2621
rah	-2622
alis	-2623
▁189	-2624
ogyakarta	-2625
▁produk	-2626
20	-2627
60	-2628
▁29	-2629
▁milik	-2630
▁tangga	-2631
umpang	-2632
aian	-2633
egun	-2634
adaan	-2635
▁diproduksi	-2636
▁Dewan	-2637
burg	-2638
▁mis	-2639
▁Super	-2640
▁pasukan	-2641
let	-2642
▁video	-2643
▁meliputi	-2644
▁kegiatan	-2645
▁organisasi	-2646
ampu	-2647
tim	-2648
ornya	-2649
▁100	-2650
INE	-2651
amai	-2652
wo	-2653
▁menj	-2654
ten	-2655
▁Suku	-2656
▁warga	-2657
badi	-2658
▁budaya	-2659
▁188	-2660
isaran	-2661
▁menerima	-2662
tic	-2663
▁3:	-2664
▁mul	-2665
▁dipakai	-2666
▁Gar	-2667
antung	-2668
iling	-2669
▁Singa	-2670
otor	-2671
▁komputer	-2672
▁You	-2673
▁radi	-2674
▁Tra	-2675
▁belajar	-2676
atunya	-2677
▁Filmografi	-2678
▁modern	-2679
▁dibintangi	-2680
▁(,	-2681
▁Ah	-2682
jaya	-2683
▁Socor	-2684
▁Socorro	-2685
otel	-2686
way	-2687
akul	-2688
▁berba	-2689
▁Mesi	-2690
atorium	-2691
▁diberikan	-2692
▁Yogyakarta	-2693
uf	-2694
ateg	-2695
▁angk	-2696
bak	-2697
isode	-2698
▁Kanada	-2699
▁London	-2700
▁Universit	-2701
▁mengikuti	-2702
▁Kehidupan	-2703
jual	-2704
▁ketinggian	-2705
sari	-2706
▁190	-2707
▁Ne	-2708
uanya	-2709
▁LINE	-2710
▁Tinggi	-2711
che	-2712
ect	-2713
▁ep	-2714
▁(3	-2715
omo	-2716
▁elek	-2717
▁tertentu	-2718
▁tujuan	-2719
▁Ibrani	-2720
alif	-2721
▁13.	-2722
▁LINEAR	-2723
▁Tekn	-2724
▁Bant	-2725
ony	-2726
▁Sov	-2727
ica	-2728
▁Unit	-2729
ujuh	-2730
▁Rakyat	-2731
▁benda	-2732
▁Mi	-2733
▁Sain	-2734
▁diperk	-2735
batan	-2736
▁Sid	-2737
uangan	-2738
▁Pri	-2739
▁UE	-2740
▁dibagi	-2741
▁alat	-2742
ekan	-2743
▁dikel	-2744
▁Ketika	-2745
zoa	-2746
▁bis	-2747
anga	-2748
daya	-2749
▁merujuk	-2750
own	-2751
gn	-2752
utup	-2753
▁mew	-2754
▁merah	-2755
ras	-2756
▁Im	-2757
")	-2758
que	-2759
wak	-2760
▁hubungan	-2761
▁Mesir	-2762
▁Val	-2763
▁huruf	-2764
sir	-2765
unuh	-2766
▁Pemerintahan	-2767
iptakan	-2768
▁rendah	-2769
▁Jo	-2770
▁For	-2771
ilang	-2772
▁National	-2773
ru	-2774
use	-2775
▁RT	-2776
▁Sebagian	-2777
▁Kelas	-2778
▁Lo	-2779
lahkan	-2780
▁tah	-2781
urnamen	-2782
▁sosial	-2783
▁Sura	-2784
▁Taman	-2785
▁kimia	-2786
▁berkembang	-2787
▁Mart	-2788
▁2006,	-2789
acam	-2790
▁dija	-2791
egunungan	-2792
▁berjudul	-2793
▁(196	-2794
▁peran	-2795
unggal	-2796
▁singel	-2797
car	-2798
ubahan	-2799
akter	-2800
▁Sumber	-2801
jut	-2802
▁rasi	-2803
esm	-2804
▁Sar	-2805
▁University	-2806
ham	-2807
▁hi	-2808
▁Tempat	-2809
▁profesional	-2810
▁Perdana	-2811
▁Mil	-2812
jalanan	-2813
▁dita	-2814
ikit	-2815
▁Muhammad	-2816
ven	-2817
▁kuno	-2818
▁tepat	-2819
▁pemimpin	-2820
▁belum	-2821
liam	-2822
ref	-2823
edung	-2824
▁Perjanjian	-2825
▁Demografi	-2826
ayoritas	-2827
irip	-2828
▁class	-2829
sp	-2830
emat	-2831
ty	-2832
ann	-2833
▁karakter	-2834
▁maskapai	-2835
▁Divisi	-2836
▁profile	-2837
hat	-2838
astra	-2839
▁Comp	-2840
▁dewasa	-2841
▁pendiri	-2842
akultas	-2843
45	-2844
▁Soviet	-2845
▁kehidupan	-2846
▁by	-2847
ograp	-2848
erit	-2849
ahaya	-2850
▁subr	-2851
tron	-2852
▁Eur	-2853
unjukkan	-2854
▁sekaligus	-2855
zz	-2856
▁dipimpin	-2857
▁ayahnya	-2858
▁sal	-2859
▁Batu	-2860
▁akibat	-2861
▁—	-2862
▁gunung	-2863
▁sisi	-2864
▁Hol	-2865
▁Ken	-2866
▁kor	-2867
//	-2868
▁menghasilkan	-2869
opsis	-2870
masing	-2871
adem	-2872
ko	-2873
▁diambil	-2874
trak	-2875
tris	-2876
▁Mek	-2877
ero	-2878
▁su	-2879
▁menulis	-2880
▁Maj	-2881
▁Kemudian	-2882
▁...	-2883
▁up	-2884
berg	-2885
ito	-2886
▁Bintang	-2887
umur	-2888
des	-2889
▁2011.	-2890
▁Hy	-2891
▁subregnum	-2892
▁Jac	-2893
▁Parazoa	-2894
▁populer	-2895
▁Sultan	-2896
▁Organisasi	-2897
://	-2898
▁Lampung	-2899
▁UEFA	-2900
▁ayat	-2901
▁lar	-2902
ilangan	-2903
▁mur	-2904
▁is	-2905
pr	-2906
▁diberi	-2907
mur	-2908
▁mus	-2909
ert	-2910
km	-2911
els	-2912
▁Instit	-2913
▁Surabaya	-2914
▁Ga	-2915
▁masing	-2916
▁sup	-2917
▁Ci	-2918
▁Allah	-2919
▁kla	-2920
▁Mor	-2921
▁Er	-2922
▁Orang	-2923
▁Penghargaan	-2924
▁hampir	-2925
▁berisi	-2926
▁Tanah	-2927
▁par	-2928
▁kek	-2929
▁menggantikan	-2930
elar	-2931
▁School	-2932
fi	-2933
▁Angg	-2934
urus	-2935
▁uj	-2936
▁Sed	-2937
ester	-2938
▁id	-2939
luk	-2940
▁Do	-2941
▁mampu	-2942
▁sah	-2943
oratorium	-2944
▁1998	-2945
lahirkan	-2946
atuh	-2947
▁ist	-2948
▁mendirikan	-2949
aih	-2950
BC	-2951
▁Star	-2952
▁Code	-2953
▁Objek	-2954
ese	-2955
▁Lu	-2956
alang	-2957
alaman	-2958
yani	-2959
▁Tom	-2960
▁jabatan	-2961
▁putri	-2962
its	-2963
akup	-2964
▁(18	-2965
▁Nag	-2966
rasi	-2967
▁Kampung	-2968
ebas	-2969
▁Bumi	-2970
▁Mc	-2971
▁Flor	-2972
▁“	-2973
uga	-2974
▁[	-2975
201	-2976
▁Official	-2977
pada	-2978
ahli	-2979
▁4.	-2980
yek	-2981
ano	-2982
rag	-2983
▁form	-2984
▁Yah	-2985
▁sempat	-2986
▁Dinasti	-2987
▁informasi	-2988
▁lap	-2989
▁Pl	-2990
▁nov	-2991
ambar	-2992
▁pasar	-2993
▁kampung	-2994
▁berbasis	-2995
ttp	-2996
bon	-2997
▁menyebabkan	-2998
▁Ek	-2999
▁Po	-3000
ajalah	-3001
▁County	-3002
▁Tok	-3003
▁http	-3004
ech	-3005
▁warna	-3006
▁berbentuk	-3007
▁na	-3008
▁Yo	-3009
▁Ham	-3010
▁Ur	-3011
mar	-3012
oma	-3013
ewar	-3014
▁Form	-3015
▁diketahui	-3016
▁lingkungan	-3017
▁final	-3018
▁Fa	-3019
▁Kitab	-3020
▁penghargaan	-3021
▁pos	-3022
▁Satu	-3023
▁2004,	-3024
▁sedikit	-3025
kannya	-3026
▁William	-3027
▁Bang	-3028
-4	-3029
ling	-3030
epas	-3031
emuan	-3032
yap	-3033
amaan	-3034
ambang	-3035
▁mah	-3036
kota	-3037
ungi	-3038
▁pener	-3039
bai	-3040
pati	-3041
▁berd	-3042
▁Mel	-3043
▁agar	-3044
▁Love	-3045
▁tertinggi	-3046
▁Isti	-3047
▁Kol	-3048
▁website	-3049
▁Pangeran	-3050
▁Mul	-3051
wang	-3052
▁terbaik	-3053
▁menyebut	-3054
eth	-3055
▁ab	-3056
dam	-3057
▁ik	-3058
▁hewan	-3059
▁burung	-3060
▁Jenderal	-3061
▁Polandia	-3062
luas	-3063
▁Stat	-3064
fin	-3065
uel	-3066
▁Az	-3067
▁Bany	-3068
▁tua	-3069
▁presiden	-3070
56	-3071
rid	-3072
▁Kur	-3073
▁suk	-3074
jem	-3075
33	-3076
▁ahli	-3077
alaupun	-3078
ayang	-3079
▁Alex	-3080
▁hitam	-3081
▁mit	-3082
▁Latin	-3083
–19	-3084
▁Ni	-3085
▁Perm	-3086
▁memas	-3087
▁Rec	-3088
adatan	-3089
▁West	-3090
▁mengambil	-3091
▁namanya	-3092
▁Bac	-3093
empuh	-3094
▁debut	-3095
▁Gubernur	-3096
lanjut	-3097
▁selalu	-3098
bus	-3099
▁Melayu	-3100
engkap	-3101
▁Utama	-3102
endaraan	-3103
ometer	-3104
rig	-3105
▁vokal	-3106
▁im	-3107
▁dilahirkan	-3108
ace	-3109
▁from	-3110
▁Gi	-3111
▁Mem	-3112
▁berper	-3113
▁Roma	-3114
▁ikan	-3115
ll	-3116
▁Hindia	-3117
70	-3118
engaruh	-3119
▁1995	-3120
lawan	-3121
▁Abdul	-3122
▁dah	-3123
der	-3124
▁no	-3125
hana	-3126
atkan	-3127
▁Munisipalitas	-3128
▁perangkat	-3129
▁em	-3130
▁jika	-3131
▁Istilah	-3132
stem	-3133
nam	-3134
ence	-3135
▁Grand	-3136
ihak	-3137
etan	-3138
▁sesuai	-3139
▁Sir	-3140
estiv	-3141
ominasi	-3142
otal	-3143
▁Law	-3144
▁Jl	-3145
▁Hari	-3146
iru	-3147
ingkatan	-3148
dan	-3149
▁Ketua	-3150
▁Lama	-3151
opi	-3152
80	-3153
uma	-3154
▁Saint	-3155
▁aktif	-3156
▁dimiliki	-3157
▁Kaisar	-3158
▁Brasil	-3159
▁diadakan	-3160
baw	-3161
▁Bla	-3162
▁bersi	-3163
ibatkan	-3164
guruan	-3165
▁lokal	-3166
ram	-3167
uss	-3168
▁Cent	-3169
▁Pasi	-3170
▁si	-3171
▁Cl	-3172
etron	-3173
ure	-3174
hoa	-3175
▁Tidak	-3176
estival	-3177
▁Gl	-3178
my	-3179
▁James	-3180
▁pohon	-3181
▁adanya	-3182
▁Teluk	-3183
▁Austria	-3184
▁dij	-3185
▁Pertempuran	-3186
▁Sebelum	-3187
▁Masjid	-3188
engahan	-3189
KI	-3190
ux	-3191
▁Won	-3192
ee	-3193
antik	-3194
ekaan	-3195
egaraan	-3196
kar	-3197
Mar	-3198
unak	-3199
▁Web	-3200
▁(195	-3201
▁menjadikan	-3202
▁Bayern	-3203
▁badan	-3204
ris	-3205
egang	-3206
yam	-3207
▁Keka	-3208
impinan	-3209
▁meraih	-3210
tain	-3211
▁Jumlah	-3212
▁Pemerintah	-3213
▁Singapura	-3214
▁Paus	-3215
▁khas	-3216
▁novel	-3217
▁Park	-3218
The	-3219
▁penumpang	-3220
▁radio	-3221
▁1,	-3222
▁berumur	-3223
22	-3224
ebuah	-3225
▁enam	-3226
elumnya	-3227
▁hak	-3228
yangkan	-3229
▁berlangsung	-3230
▁Tor	-3231
35	-3232
▁Mur	-3233
ambi	-3234
dukung	-3235
▁Kejuaraan	-3236
▁garis	-3237
erdekaan	-3238
ental	-3239
usul	-3240
▁pe	-3241
▁terbang	-3242
▁kr	-3243
indu	-3244
▁menyatakan	-3245
tida	-3246
uncak	-3247
siko	-3248
▁Gir	-3249
▁Klub	-3250
▁berbahasa	-3251
▁diselenggarakan	-3252
▁bandar	-3253
▁Pra	-3254
▁bak	-3255
▁Ari	-3256
▁Semarang	-3257
▁disingkat	-3258
ubl	-3259
▁Sri	-3260
usk	-3261
▁sensus	-3262
):	-3263
uat	-3264
▁Sunda	-3265
▁organ	-3266
jau	-3267
▁Paul	-3268
jad	-3269
▁Kali	-3270
▁Kata	-3271
operasikan	-3272
uta	-3273
▁Sl	-3274
▁operasi	-3275
amakan	-3276
▁mencakup	-3277
▁Mari	-3278
▁Sing	-3279
▁Portug	-3280
▁olahraga	-3281
▁Kebanyakan	-3282
▁United	-3283
▁31	-3284
▁Sinopsis	-3285
ser	-3286
▁nomor	-3287
PR	-3288
ogo	-3289
▁Sub	-3290
amadya	-3291
▁melayani	-3292
▁Selama	-3293
ander	-3294
ampilkan	-3295
▁depan	-3296
▁RW	-3297
▁Mod	-3298
estasi	-3299
▁Kab	-3300
▁Grup	-3301
▁Meskipun	-3302
▁All	-3303
▁menunjukkan	-3304
ampuan	-3305
▁Kekaisaran	-3306
▁dar	-3307
▁David	-3308
ular	-3309
negara	-3310
▁kil	-3311
orong	-3312
ambah	-3313
elitian	-3314
ng	-3315
ows	-3316
▁pribadi	-3317
▁gol	-3318
ath	-3319
▁tertua	-3320
37	-3321
▁surat	-3322
▁sw	-3323
hael	-3324
ganegaraan	-3325
▁Fakultas	-3326
▁dikembangkan	-3327
▁Tionghoa	-3328
▁Sil	-3329
▁Hong	-3330
rata	-3331
▁Mac	-3332
▁Bagian	-3333
uncurkan	-3334
ein	-3335
▁utamanya	-3336
ings	-3337
▁li	-3338
ografis	-3339
▁bisnis	-3340
elan	-3341
enti	-3342
▁lokasi	-3343
omba	-3344
▁cabang	-3345
▁Dukuh	-3346
▁terpilih	-3347
▁US	-3348
62	-3349
▁4:	-3350
▁Ilmu	-3351
▁Ala	-3352
▁Sab	-3353
▁Papua	-3354
embaga	-3355
▁Sistem	-3356
▁Rujukan	-3357
ando	-3358
aharian	-3359
▁Swedia	-3360
▁uang	-3361
▁meskipun	-3362
▁Cir	-3363
ergi	-3364
erasi	-3365
ank	-3366
▁pembangunan	-3367
emu	-3368
▁tanaman	-3369
▁Champ	-3370
buatan	-3371
▁Bin	-3372
▁Tipula	-3373
▁Ca	-3374
▁del	-3375
BN	-3376
embatan	-3377
▁perjalanan	-3378
▁Bak	-3379
▁ditayangkan	-3380
▁Wind	-3381
▁Laboratorium	-3382
ikian	-3383
▁Yes	-3384
▁penggunaan	-3385
▁mon	-3386
▁ha	-3387
ipta	-3388
▁Del	-3389
▁Resmi	-3390
▁Ja	-3391
▁berat	-3392
rad	-3393
ahanan	-3394
▁dat	-3395
ukiman	-3396
▁gereja	-3397
▁struktur	-3398
▁perkembangan	-3399
iksi	-3400
▁kerja	-3401
▁aktris	-3402
49	-3403
▁datang	-3404
ear	-3405
▁seg	-3406
▁pat	-3407
▁Salah	-3408
▁Hulu	-3409
▁rata	-3410
▁TNI	-3411
59	-3412
▁Alam	-3413
▁Hen	-3414
▁kekuasaan	-3415
odi	-3416
▁Bon	-3417
▁Dua	-3418
dalam	-3419
▁Turki	-3420
aha	-3421
▁Ver	-3422
▁kak	-3423
▁media	-3424
▁Dana	-3425
▁tangan	-3426
antara	-3427
epatan	-3428
orejo	-3429
▁produs	-3430
-200	-3431
ball	-3432
iring	-3433
▁nilai	-3434
▁Adi	-3435
tis	-3436
▁Rum	-3437
elahiran	-3438
47	-3439
hail	-3440
ower	-3441
▁Swiss	-3442
▁bahkan	-3443
ikel	-3444
▁Mark	-3445
enterian	-3446
▁peristiwa	-3447
▁pasal	-3448
▁fungsi	-3449
▁2010.	-3450
32	-3451
▁mungkin	-3452
▁cm	-3453
omat	-3454
▁Tar	-3455
▁Mis	-3456
▁ikut	-3457
▁babak	-3458
wal	-3459
▁lunak	-3460
ope	-3461
▁usaha	-3462
pro	-3463
ranc	-3464
itasi	-3465
eni	-3466
▁membawa	-3467
▁dimana	-3468
▁partai	-3469
ugh	-3470
elapan	-3471
39	-3472
▁Mik	-3473
▁Sun	-3474
▁berg	-3475
ambarkan	-3476
▁lengkap	-3477
satunya	-3478
tro	-3479
▁antaranya	-3480
46	-3481
sch	-3482
▁50	-3483
▁kantor	-3484
asia	-3485
▁Lam	-3486
▁pemeran	-3487
▁kun	-3488
▁terus	-3489
itt	-3490
abat	-3491
▁Irlandia	-3492
36	-3493
▁Purw	-3494
▁Don	-3495
orge	-3496
▁Tet	-3497
enteng	-3498
▁layanan	-3499
▁bala	-3500
▁Anggota	-3501
ade	-3502
ehatan	-3503
▁pa	-3504
▁Program	-3505
ote	-3506
sal	-3507
etapkan	-3508
▁str	-3509
cal	-3510
58	-3511
▁kariernya	-3512
akh	-3513
▁mengalahkan	-3514
▁gaya	-3515
ush	-3516
▁am	-3517
akin	-3518
▁Qu	-3519
▁Cla	-3520
▁menengah	-3521
▁meningkat	-3522
▁Bola	-3523
▁sayap	-3524
▁Ki	-3525
▁Pel	-3526
aliforn	-3527
▁Vol	-3528
▁South	-3529
▁Medan	-3530
gala	-3531
▁Comm	-3532
▁penyakit	-3533
▁perubahan	-3534
▁teknologi	-3535
▁Arg	-3536
▁tep	-3537
▁2007,	-3538
ewarganegaraan	-3539
irim	-3540
▁Naskah	-3541
▁Kelahiran	-3542
▁Ali	-3543
▁Tri	-3544
row	-3545
▁Tu	-3546
▁Badan	-3547
42	-3548
bau	-3549
likasi	-3550
▁cepat	-3551
▁kepadatan	-3552
ahi	-3553
▁Os	-3554
▁Bag	-3555
▁Samp	-3556
urusan	-3557
▁ti	-3558
intas	-3559
57	-3560
alifornia	-3561
dagangan	-3562
udukan	-3563
▁Feder	-3564
38	-3565
ombang	-3566
alu	-3567
▁Luas	-3568
▁berakhir	-3569
▁Tang	-3570
▁perdana	-3571
tivitas	-3572
batas	-3573
▁Mont	-3574
▁listrik	-3575
▁Cap	-3576
▁daripada	-3577
▁Rad	-3578
ampilan	-3579
▁Pop	-3580
▁non	-3581
▁Masa	-3582
52	-3583
net	-3584
ome	-3585
anta	-3586
▁Hil	-3587
oll	-3588
▁Sebuah	-3589
imana	-3590
▁ruang	-3591
nes	-3592
urah	-3593
▁Mes	-3594
▁berusia	-3595
baca	-3596
dung	-3597
▁Lap	-3598
AM	-3599
▁masalah	-3600
ink	-3601
▁5.	-3602
▁panas	-3603
▁Aten	-3604
▁Matahari	-3605
impia	-3606
aturan	-3607
ukti	-3608
cha	-3609
▁mengel	-3610
▁kompetisi	-3611
angit	-3612
pl	-3613
▁2007.	-3614
▁kadang	-3615
▁kendaraan	-3616
ene	-3617
▁Nomor	-3618
▁mirip	-3619
▁Pantai	-3620
▁membantu	-3621
▁ujung	-3622
▁Terbaik	-3623
baga	-3624
▁Robert	-3625
refektur	-3626
ulisan	-3627
▁Wakil	-3628
▁dirinya	-3629
eet	-3630
▁187	-3631
irakan	-3632
elesa	-3633
▁angka	-3634
asus	-3635
▁ins	-3636
-8	-3637
▁batas	-3638
▁berag	-3639
▁saudara	-3640
dayaan	-3641
ocal	-3642
▁pihak	-3643
acara	-3644
dari	-3645
▁kelahir	-3646
▁Hi	-3647
▁Rich	-3648
▁Group	-3649
▁Singel	-3650
elang	-3651
jarak	-3652
▁Nob	-3653
▁Inter	-3654
▁Bengk	-3655
raj	-3656
▁Eng	-3657
▁Michael	-3658
gerak	-3659
ington	-3660
▁Top	-3661
▁Maria	-3662
ubungkan	-3663
▁Arm	-3664
umpulan	-3665
angani	-3666
ague	-3667
▁California	-3668
BS	-3669
io	-3670
ole	-3671
impiade	-3672
eral	-3673
▁beroperasi	-3674
tip	-3675
▁tip	-3676
▁judul	-3677
oran	-3678
▁berf	-3679
▁!	-3680
▁Hung	-3681
▁tampil	-3682
ukun	-3683
awang	-3684
ford	-3685
▁Pand	-3686
▁("	-3687
▁Tab	-3688
▁istri	-3689
▁titik	-3690
isahkan	-3691
▁sar	-3692
▁Peristiwa	-3693
▁memperoleh	-3694
▁pasangan	-3695
ujan	-3696
▁episode	-3697
sel	-3698
▁Yahudi	-3699
▁keempat	-3700
enalkan	-3701
▁Umum	-3702
▁keber	-3703
▁Ram	-3704
lemen	-3705
endera	-3706
▁kilometer	-3707
▁Menengah	-3708
▁cahaya	-3709
▁dahulu	-3710
▁menarik	-3711
ukul	-3712
▁(),	-3713
▁Bad	-3714
port	-3715
▁log	-3716
▁kotanya	-3717
arjo	-3718
▁Karya	-3719
onen	-3720
▁Bos	-3721
▁kemampuan	-3722
ES	-3723
oki	-3724
esis	-3725
▁sul	-3726
▁dag	-3727
▁Kementerian	-3728
▁Peter	-3729
▁total	-3730
iver	-3731
▁turnamen	-3732
▁Rumah	-3733
▁Sang	-3734
sekarang	-3735
for	-3736
over	-3737
umkan	-3738
▁Budd	-3739
ato	-3740
ensis	-3741
enarnya	-3742
omas	-3743
angkap	-3744
lain	-3745
▁14.	-3746
▁Vic	-3747
▁tentara	-3748
▁Miss	-3749
▁res	-3750
▁Juara	-3751
▁Lee	-3752
iki	-3753
▁ef	-3754
▁studio	-3755
▁Ayah	-3756
▁Bandara	-3757
▁Bala	-3758
▁jawa	-3759
▁SDN	-3760
▁Tegal	-3761
bel	-3762
van	-3763
itung	-3764
▁ri	-3765
▁inter	-3766
▁jatuh	-3767
▁Bukit	-3768
▁rakyat	-3769
NS	-3770
▁IV	-3771
ume	-3772
▁ajang	-3773
▁;	-3774
▁manaj	-3775
▁ukuran	-3776
▁kod	-3777
▁Radi	-3778
cel	-3779
▁Pesawat	-3780
bia	-3781
aram	-3782
▁dom	-3783
kadang	-3784
tes	-3785
▁Sol	-3786
esisir	-3787
▁Berdasarkan	-3788
lines	-3789
utaran	-3790
yon	-3791
▁Sementara	-3792
elak	-3793
film	-3794
▁Kim	-3795
umbuhan	-3796
▁Hel	-3797
andi	-3798
▁Sepak	-3799
▁We	-3800
tel	-3801
onia	-3802
▁pria	-3803
▁Terdapat	-3804
▁40	-3805
kh	-3806
acu	-3807
jari	-3808
▁Wh	-3809
▁kayu	-3810
dium	-3811
ampak	-3812
▁elektron	-3813
etaknya	-3814
▁gelandang	-3815
oba	-3816
eorang	-3817
ekerjaan	-3818
ulat	-3819
▁ko	-3820
▁Meng	-3821
▁lahan	-3822
hailand	-3823
▁bertahan	-3824
aktor	-3825
▁memilih	-3826
hari	-3827
▁majalah	-3828
▁seminggu	-3829
ott	-3830
cion	-3831
▁berjarak	-3832
tra	-3833
▁edisi	-3834
▁Enter	-3835
erto	-3836
▁malam	-3837
▁leg	-3838
akili	-3839
ediakan	-3840
▁dijadikan	-3841
▁Departemen	-3842
▁inf	-3843
▁rep	-3844
▁Up	-3845
▁fasilitas	-3846
▁Tai	-3847
▁gag	-3848
okrat	-3849
▁Batak	-3850
ambahan	-3851
yl	-3852
ifat	-3853
▁gerakan	-3854
rejo	-3855
▁High	-3856
▁Bog	-3857
▁Santa	-3858
▁pemilihan	-3859
▁ch	-3860
▁Ul	-3861
▁penj	-3862
▁tumbuh	-3863
▁demikian	-3864
▁Olimpiade	-3865
ake	-3866
alik	-3867
▁Oise	-3868
▁diangkat	-3869
amil	-3870
ze	-3871
oso	-3872
kuat	-3873
▁2006.	-3874
andingkan	-3875
-7	-3876
embah	-3877
▁status	-3878
▁191	-3879
▁ISBN	-3880
ekaran	-3881
jana	-3882
▁186	-3883
▁Bas	-3884
27	-3885
onis	-3886
▁Pasar	-3887
apa	-3888
ewi	-3889
▁era	-3890
▁kam	-3891
▁sebutan	-3892
▁seseorang	-3893
ribusi	-3894
▁Music	-3895
▁penja	-3896
▁1996	-3897
▁Keluar	-3898
eo	-3899
▁kuat	-3900
▁bersa	-3901
uji	-3902
obo	-3903
entina	-3904
▁artinya	-3905
olf	-3906
▁Yesus	-3907
▁mudah	-3908
▁mewakili	-3909
▁7.	-3910
▁kematian	-3911
fik	-3912
An	-3913
asiswa	-3914
▁melihat	-3915
lukan	-3916
portasi	-3917
▁Record	-3918
55	-3919
ON	-3920
▁Anton	-3921
▁sana	-3922
-9	-3923
▁6.	-3924
oth	-3925
▁Santo	-3926
▁fisik	-3927
-6	-3928
▁Thailand	-3929
▁Us	-3930
yata	-3931
zh	-3932
▁Dev	-3933
▁Kul	-3934
▁sus	-3935
▁Burung	-3936
▁Champi	-3937
▁berperan	-3938
cc	-3939
▁berla	-3940
▁kitab	-3941
▁Airlines	-3942
▁pember	-3943
▁Formula	-3944
osari	-3945
zim	-3946
▁univer	-3947
erik	-3948
ultanan	-3949
▁Pon	-3950
0.000	-3951
gia	-3952
alo	-3953
▁Anak	-3954
▁North	-3955
▁Cr	-3956
sial	-3957
▁Sat	-3958
▁Ob	-3959
44	-3960
uarkan	-3961
ewat	-3962
▁Kid	-3963
▁Malang	-3964
▁dibuka	-3965
▁Viet	-3966
▁pengembangan	-3967
▁Mich	-3968
ondok	-3969
▁daun	-3970
▁bekas	-3971
▁hid	-3972
ograph	-3973
▁Sedangkan	-3974
▁lembaga	-3975
▁Zh	-3976
▁Danau	-3977
29	-3978
▁Lou	-3979
▁Bah	-3980
▁tugas	-3981
▁ingin	-3982
28	-3983
ster	-3984
▁Jer	-3985
▁1997	-3986
▁Ras	-3987
emaja	-3988
▁lulus	-3989
▁politikus	-3990
CA	-3991
▁Fer	-3992
▁kela	-3993
utusan	-3994
abrik	-3995
▁senjata	-3996
alon	-3997
itur	-3998
▁Banten	-3999
▁Hukum	-4000
▁stadion	-4001
TI	-4002
▁Coll	-4003
▁ulang	-4004
▁buatan	-4005
alifikasi	-4006
▁memerint	-4007
▁perbatasan	-4008
weg	-4009
asinya	-4010
▁guru	-4011
▁Hindu	-4012
▁temp	-4013
oph	-4014
▁Vi	-4015
inet	-4016
▁Tiga	-4017
▁selain	-4018
▁Bet	-4019
▁Bor	-4020
elesaikan	-4021
▁peserta	-4022
▁2,	-4023
▁khususnya	-4024
anton	-4025
yle	-4026
▁memainkan	-4027
bah	-4028
upati	-4029
▁Land	-4030
▁teknik	-4031
▁der	-4032
▁antar	-4033
Pob	-4034
line	-4035
▁George	-4036
▁Mun	-4037
▁Samud	-4038
▁berita	-4039
▁Ven	-4040
▁disi	-4041
▁Bill	-4042
aro	-4043
▁Fri	-4044
anti	-4045
▁2009.	-4046
▁12.	-4047
▁Leb	-4048
ER	-4049
▁larva	-4050
▁bertelur	-4051
▁publik	-4052
etahuan	-4053
▁sukses	-4054
vo	-4055
▁Camp	-4056
ado	-4057
▁PS	-4058
angkaian	-4059
▁Black	-4060
26	-4061
▁kulit	-4062
▁pertengahan	-4063
▁menempat	-4064
▁gitar	-4065
irus	-4066
▁BPS	-4067
ele	-4068
▁sakit	-4069
we	-4070
▁with	-4071
▁serangan	-4072
-5	-4073
▁fr	-4074
empa	-4075
▁tujuh	-4076
▁Ekonomi	-4077
▁mayoritas	-4078
disingkat	-4079
▁Pari	-4080
▁mencari	-4081
▁kaum	-4082
ulunya	-4083
▁memut	-4084
▁Festival	-4085
▁wilayahnya	-4086
oks	-4087
▁35	-4088
▁Pu	-4089
▁sh	-4090
dik	-4091
▁Gor	-4092
amanan	-4093
▁seluas	-4094
▁Maluku	-4095
col	-4096
▁Christ	-4097
▁pu	-4098
▁Dom	-4099
▁berc	-4100
▁tunggal	-4101
▁Biografi	-4102
▁aliran	-4103
▁pertempuran	-4104
▁Club	-4105
▁Meksiko	-4106
▁penelitian	-4107
are	-4108
▁Champions	-4109
jun	-4110
sifikasi	-4111
▁Vietnam	-4112
▁Cip	-4113
▁ibunya	-4114
beda	-4115
andard	-4116
Per	-4117
inang	-4118
▁Perk	-4119
anakan	-4120
▁Cina	-4121
embilan	-4122
baru	-4123
▁Bek	-4124
inyak	-4125
▁Fre	-4126
▁kekuatan	-4127
ewas	-4128
▁cat	-4129
▁dial	-4130
▁sini	-4131
▁Uk	-4132
▁Kantor	-4133
▁Art	-4134
ektor	-4135
▁standar	-4136
▁perdagangan	-4137
▁Ant	-4138
▁Fasilitas	-4139
▁asam	-4140
▁pengg	-4141
▁kondisi	-4142
▁misalnya	-4143
EE	-4144
▁ata	-4145
▁sebaga	-4146
▁Sant	-4147
ohan	-4148
▁Nobel	-4149
▁contoh	-4150
asitas	-4151
▁bebas	-4152
win	-4153
iyah	-4154
▁membangun	-4155
val	-4156
▁Rah	-4157
Putaran	-4158
▁belas	-4159
▁teori	-4160
dy	-4161
olos	-4162
▁kemerdekaan	-4163
ova	-4164
▁mm	-4165
aksa	-4166
▁juni	-4167
uasai	-4168
med	-4169
▁Ratu	-4170
▁Musim	-4171
ild	-4172
elaki	-4173
▁Frank	-4174
yc	-4175
▁Fin	-4176
airan	-4177
sinya	-4178
▁Angel	-4179
▁merek	-4180
78	-4181
▁sis	-4182
▁Kematian	-4183
ademi	-4184
▁Kode	-4185
umumkan	-4186
otball	-4187
lang	-4188
▁swasta	-4189
▁Wi	-4190
▁sebenarnya	-4191
-18	-4192
▁Muara	-4193
epos	-4194
esai	-4195
▁Kun	-4196
▁unit	-4197
▁rekaman	-4198
▁memimpin	-4199
▁ed	-4200
▁dila	-4201
▁Serial	-4202
aji	-4203
▁Atas	-4204
▁bergerak	-4205
▁Jalur	-4206
▁co	-4207
▁May	-4208
▁kelahiran	-4209
ebunan	-4210
▁Charles	-4211
▁Hungaria	-4212
▁Sebelumnya	-4213
▁Syd	-4214
isis	-4215
egitu	-4216
yawa	-4217
▁Fir	-4218
ekar	-4219
▁Bangsa	-4220
▁Pac	-4221
▁Profil	-4222
▁Rumania	-4223
▁Tour	-4224
▁menjalan	-4225
▁pegunungan	-4226
rich	-4227
▁Lembaga	-4228
."	-4229
▁RI	-4230
66	-4231
▁dataran	-4232
▁mengandung	-4233
▁Sm	-4234
▁Windows	-4235
▁bandara	-4236
▁Fi	-4237
▁minyak	-4238
▁rela	-4239
▁2011,	-4240
ipil	-4241
43	-4242
uali	-4243
▁keadaan	-4244
▁semakin	-4245
TA	-4246
▁Lib	-4247
▁unsur	-4248
▁System	-4249
inus	-4250
▁Gol	-4251
▁rock	-4252
aren	-4253
tit	-4254
▁peda	-4255
▁Tokyo	-4256
▁keper	-4257
▁Administr	-4258
▁Galeri	-4259
▁meninggalkan	-4260
▁Nik	-4261
ayasan	-4262
▁Lan	-4263
otensi	-4264
ario	-4265
andangan	-4266
▁Surat	-4267
▁peringkat	-4268
án	-4269
assar	-4270
▁penuh	-4271
▁Denmark	-4272
▁kembar	-4273
▁Jon	-4274
▁darah	-4275
▁op	-4276
▁Radio	-4277
▁sastra	-4278
▁Latar	-4279
enangan	-4280
▁pemekaran	-4281
ategori	-4282
▁ataupun	-4283
▁Id	-4284
▁Thomas	-4285
▁pelajar	-4286
▁x	-4287
iner	-4288
▁komedi	-4289
wn	-4290
▁Lor	-4291
mon	-4292
▁bant	-4293
arisan	-4294
▁energi	-4295
ón	-4296
uhu	-4297
anjutkan	-4298
▁gambar	-4299
olak	-4300
▁Nur	-4301
▁murid	-4302
endal	-4303
▁Politik	-4304
ihan	-4305
itra	-4306
Al	-4307
▁tepatnya	-4308
▁berukuran	-4309
oman	-4310
▁Sydney	-4311
enaga	-4312
die	-4313
▁Persi	-4314
▁Mu	-4315
▁gi	-4316
gawa	-4317
▁kamp	-4318
adilan	-4319
▁pingg	-4320
▁berlokasi	-4321
rian	-4322
▁Pla	-4323
ripsi	-4324
▁bersifat	-4325
▁menampilkan	-4326
▁+	-4327
-201	-4328
intu	-4329
ision	-4330
▁hujan	-4331
ungkinan	-4332
www	-4333
▁Awal	-4334
79	-4335
nas	-4336
tana	-4337
▁Kas	-4338
▁konsep	-4339
▁Pasal	-4340
antaranya	-4341
▁Bh	-4342
▁masjid	-4343
▁Km	-4344
po	-4345
dal	-4346
▁Je	-4347
▁Inf	-4348
▁Dol	-4349
▁Jat	-4350
okter	-4351
▁off	-4352
▁pemenang	-4353
vel	-4354
▁2009,	-4355
antren	-4356
az	-4357
▁proyek	-4358
elis	-4359
rus	-4360
utu	-4361
▁(~	-4362
▁sat	-4363
▁bus	-4364
▁Awards	-4365
▁Rev	-4366
▁sejenis	-4367
▁Bra	-4368
▁oper	-4369
BA	-4370
▁emas	-4371
rancang	-4372
▁League	-4373
hal	-4374
▁sifat	-4375
▁diluncurkan	-4376
▁Agama	-4377
▁Putri	-4378
▁keduanya	-4379
▁region	-4380
▁lem	-4381
inj	-4382
▁1992	-4383
▁mengembangkan	-4384
▁dewa	-4385
elajari	-4386
▁VII	-4387
▁kompl	-4388
▁mendukung	-4389
▁Rock	-4390
▁Kuala	-4391
onton	-4392
gabungan	-4393
▁Musik	-4394
eritakan	-4395
SM	-4396
oft	-4397
▁Aku	-4398
▁pad	-4399
▁Iran	-4400
▁kopi	-4401
apak	-4402
ganya	-4403
erangan	-4404
ashi	-4405
▁Net	-4406
tainment	-4407
▁Sari	-4408
▁cok	-4409
▁kisah	-4410
▁lelaki	-4411
53	-4412
▁Ot	-4413
▁perh	-4414
anggil	-4415
ente	-4416
▁2005.	-4417
ville	-4418
ingle	-4419
▁lebar	-4420
▁mitologi	-4421
▁Red	-4422
▁dipilih	-4423
ektif	-4424
▁Pala	-4425
ois	-4426
▁Kebu	-4427
▁Mong	-4428
ikahan	-4429
linya	-4430
▁saluran	-4431
▁Acara	-4432
▁Panjang	-4433
PA	-4434
akti	-4435
▁19.	-4436
▁Pembangunan	-4437
▁Let	-4438
umpul	-4439
▁pembuatan	-4440
bol	-4441
▁Versi	-4442
▁barangay	-4443
orf	-4444
back	-4445
▁kategori	-4446
▁2:	-4447
▁mati	-4448
▁adik	-4449
bor	-4450
▁Mos	-4451
▁Win	-4452
engaruhi	-4453
▁Standard	-4454
▁60	-4455
round	-4456
▁1994	-4457
adah	-4458
ury	-4459
▁gedung	-4460
▁Batang	-4461
▁berikutnya	-4462
▁melanjutkan	-4463
▁gug	-4464
▁hijau	-4465
▁dirancang	-4466
▁Boy	-4467
▁Video	-4468
▁Richard	-4469
▁Kesultanan	-4470
▁Rob	-4471
▁1999,	-4472
▁2001,	-4473
Ar	-4474
▁Bol	-4475
▁Carl	-4476
▁Girl	-4477
▁top	-4478
ps	-4479
▁Banyak	-4480
wegia	-4481
▁Terl	-4482
bar	-4483
olek	-4484
▁Makassar	-4485
uhkan	-4486
abel	-4487
ordin	-4488
▁camp	-4489
▁Jam	-4490
▁bertemu	-4491
▁Final	-4492
▁teman	-4493
▁Wat	-4494
uhi	-4495
▁Sama	-4496
▁terlihat	-4497
▁Fr	-4498
▁Timor	-4499
▁pergi	-4500
▁Long	-4501
▁Seine	-4502
▁Belgia	-4503
▁matemat	-4504
▁RD	-4505
ebon	-4506
obal	-4507
▁Pek	-4508
▁universitas	-4509
▁Studi	-4510
▁Argentina	-4511
iaya	-4512
OS	-4513
▁Kl	-4514
trol	-4515
▁Jul	-4516
▁pengguna	-4517
ans	-4518
tad	-4519
▁bel	-4520
gar	-4521
▁Ath	-4522
▁kabar	-4523
▁mengor	-4524
ologis	-4525
▁balapan	-4526
▁20.	-4527
▁tenggara	-4528
▁diantaranya	-4529
irik	-4530
▁fiksi	-4531
ves	-4532
arap	-4533
stein	-4534
▁es	-4535
▁Institut	-4536
ance	-4537
ward	-4538
▁diperkirakan	-4539
▁Ist	-4540
imbol	-4541
▁Lomb	-4542
▁Komun	-4543
ographic	-4544
90	-4545
erat	-4546
Marne	-4547
▁2005,	-4548
▁Lah	-4549
▁2008,	-4550
▁AK	-4551
▁Buku	-4552
▁tur	-4553
▁menyediakan	-4554
▁Roy	-4555
▁Play	-4556
▁Martin	-4557
▁mengubah	-4558
▁memutuskan	-4559
▁Batam	-4560
▁berhubungan	-4561
▁Entertainment	-4562
1-	-4563
ép	-4564
gang	-4565
▁Yer	-4566
epon	-4567
arkas	-4568
▁puncak	-4569
sara	-4570
▁Kuno	-4571
▁pukul	-4572
elam	-4573
▁(194	-4574
▁berjalan	-4575
▁kebanyakan	-4576
▁1991	-4577
▁dimainkan	-4578
▁Sah	-4579
cus	-4580
iger	-4581
anyikan	-4582
▁Keluarga	-4583
eku	-4584
ico	-4585
abis	-4586
▁rasa	-4587
▁Ay	-4588
▁Ruang	-4589
▁Lin	-4590
▁med	-4591
▁Semen	-4592
▁Norwegia	-4593
arai	-4594
▁Mati	-4595
▁perguruan	-4596
alem	-4597
▁sutradara	-4598
▁ditetapkan	-4599
31	-4600
▁Nga	-4601
▁ben	-4602
▁pelajaran	-4603
irkan	-4604
▁Song	-4605
itz	-4606
okus	-4607
▁Pad	-4608
inkan	-4609
▁perp	-4610
▁digantikan	-4611
une	-4612
uhnya	-4613
▁menit	-4614
▁konf	-4615
▁penguasa	-4616
▁dinamakan	-4617
gg	-4618
unyi	-4619
▁menghubungkan	-4620
▁CD	-4621
▁Dani	-4622
▁anti	-4623
ajah	-4624
▁1990	-4625
24	-4626
▁ditunjuk	-4627
▁Simp	-4628
▁Muslim	-4629
cap	-4630
▁Dat	-4631
sipasi	-4632
34	-4633
▁saham	-4634
▁catatan	-4635
osiasi	-4636
▁lintas	-4637
▁aslinya	-4638
▁mengajar	-4639
unjukan	-4640
vis	-4641
ijakan	-4642
▁2004.	-4643
▁merilis	-4644
▁tr	-4645
▁ped	-4646
▁melibatkan	-4647
▁kita	-4648
▁Tal	-4649
rea	-4650
▁sy	-4651
ukung	-4652
ür	-4653
ege	-4654
akaian	-4655
finisi	-4656
▁langit	-4657
▁Moh	-4658
▁Real	-4659
▁artis	-4660
▁mengk	-4661
▁umat	-4662
▁Portugal	-4663
21	-4664
oris	-4665
▁kotamadya	-4666
▁Dubai	-4667
▁Best	-4668
▁seder	-4669
▁Academ	-4670
andan	-4671
▁ganda	-4672
oi	-4673
▁ditempuh	-4674
air	-4675
▁menteri	-4676
je	-4677
▁kan	-4678
RT	-4679
▁Hotel	-4680
▁Disney	-4681
▁begitu	-4682
▁mengak	-4683
▁Teknik	-4684
vasi	-4685
uskup	-4686
▁Will	-4687
arakter	-4688
▁selesai	-4689
▁Teks	-4690
sitektur	-4691
alian	-4692
edali	-4693
99	-4694
ekut	-4695
ture	-4696
▁Lub	-4697
raft	-4698
▁etnis	-4699
▁#	-4700
uddin	-4701
sten	-4702
ult	-4703
▁Bengkulu	-4704
kait	-4705
▁setempat	-4706
ahu	-4707
eing	-4708
▁Kot	-4709
▁kalinya	-4710
Ch	-4711
▁Gra	-4712
▁terd	-4713
▁administrasi	-4714
▁1993	-4715
ewati	-4716
truksi	-4717
hire	-4718
▁ala	-4719
▁Etim	-4720
divid	-4721
overn	-4722
▁Taiwan	-4723
▁dinamai	-4724
▁sinetron	-4725
▁tersedia	-4726
jong	-4727
▁Map	-4728
enden	-4729
▁seniornya	-4730
▁Kamp	-4731
▁VI	-4732
▁Yos	-4733
▁terbuka	-4734
soci	-4735
▁tulisan	-4736
view	-4737
▁18.	-4738
wisata	-4739
Fran	-4740
▁stat	-4741
ariasi	-4742
▁Etimologi	-4743
arm	-4744
chen	-4745
andat	-4746
▁diciptakan	-4747
▁memerintah	-4748
▁Pic	-4749
▁pekerjaan	-4750
▁Tuhan	-4751
▁11.	-4752
▁gas	-4753
▁Asal	-4754
▁area	-4755
daftar	-4756
▁menciptakan	-4757
ekor	-4758
▁Mir	-4759
▁berfungsi	-4760
▁pesisir	-4761
ال	-4762
duc	-4763
nan	-4764
adiah	-4765
ustak	-4766
▁turun	-4767
▁Pul	-4768
edakan	-4769
zo	-4770
bal	-4771
▁du	-4772
ky	-4773
uduki	-4774
▁Penc	-4775
angkabau	-4776
67	-4777
aca	-4778
▁Disk	-4779
▁Bea	-4780
▁terbuat	-4781
▁Bus	-4782
iwayat	-4783
olongan	-4784
▁Sumatra	-4785
▁kodepos	-4786
68	-4787
ambo	-4788
▁Teknologi	-4789
▁Company	-4790
ning	-4791
▁Por	-4792
omi	-4793
▁Prefektur	-4794
ahlawan	-4795
▁Geographic	-4796
08	-4797
amu	-4798
din	-4799
▁Prix	-4800
54	-4801
▁Cik	-4802
▁Contoh	-4803
▁Fisi	-4804
▁Hilir	-4805
▁Buddha	-4806
ago	-4807
ukim	-4808
▁Bogor	-4809
pun	-4810
jadian	-4811
▁naskah	-4812
▁Van	-4813
▁Pondok	-4814
▁pengaruh	-4815
▁terlibat	-4816
▁DPR	-4817
▁Semua	-4818
ujud	-4819
ukis	-4820
▁Abu	-4821
minal	-4822
▁generasi	-4823
pem	-4824
undang	-4825
retaris	-4826
▁Sik	-4827
▁bank	-4828
▁sederhana	-4829
heim	-4830
▁kuning	-4831
▁Ep	-4832
iano	-4833
▁mengal	-4834
▁des	-4835
▁naik	-4836
▁kecepatan	-4837
▁pelabuhan	-4838
▁Jab	-4839
▁single	-4840
▁memberi	-4841
23	-4842
▁arti	-4843
▁diak	-4844
iburan	-4845
▁Tex	-4846
▁Wa	-4847
▁Pagi	-4848
▁Kisah	-4849
▁pabrik	-4850
▁juniornya	-4851
▁Cam	-4852
▁Master	-4853
▁menyelesaikan	-4854
▁sur	-4855
arapan	-4856
▁Yeh	-4857
▁Mata	-4858
▁keuangan	-4859
▁Minangkabau	-4860
▁Jati	-4861
evolusi	-4862
▁Cek	-4863
▁Che	-4864
bay	-4865
ft	-4866
arto	-4867
▁Lim	-4868
ayaan	-4869
du	-4870
adu	-4871
▁atom	-4872
▁Televisi	-4873
07	-4874
ersial	-4875
▁geografis	-4876
▁adat	-4877
PI	-4878
tin	-4879
▁studi	-4880
▁Corpor	-4881
▁Media	-4882
▁Vir	-4883
▁Bersama	-4884
aksud	-4885
awali	-4886
▁bersuku	-4887
eme	-4888
madi	-4889
jemahan	-4890
sil	-4891
▁0,	-4892
ilia	-4893
ukur	-4894
ering	-4895
▁mempert	-4896
iko	-4897
▁aksara	-4898
▁Soci	-4899
▁taman	-4900
▁Cirebon	-4901
▁selanjut	-4902
▁pengetahuan	-4903
▁Los	-4904
▁macam	-4905
elompok	-4906
▁Riwayat	-4907
▁aplikasi	-4908
asket	-4909
▁Struktur	-4910
▁terla	-4911
▁kemungkinan	-4912
ropol	-4913
▁Kara	-4914
▁Profile	-4915
▁aktivitas	-4916
500	-4917
▁Luk	-4918
ustakaan	-4919
▁2016	-4920
▁danau	-4921
awar	-4922
elakaan	-4923
elaskan	-4924
▁DKI	-4925
▁Leg	-4926
anaan	-4927
▁spesi	-4928
▁Chi	-4929
wakilan	-4930
▁selanjutnya	-4931
▁Bupati	-4932
▁jasa	-4933
▁tepi	-4934
ede	-4935
tihan	-4936
▁Yayasan	-4937
ations	-4938
bil	-4939
▁Bir	-4940
▁terkait	-4941
▁Demokrat	-4942
▁Academy	-4943
oul	-4944
▁King	-4945
▁produser	-4946
artisipasi	-4947
▁jadi	-4948
▁digital	-4949
▁{	-4950
▁01	-4951
rok	-4952
▁Asi	-4953
▁Blu	-4954
▁Ahmad	-4955
▁lewat	-4956
▁Hak	-4957
▁Merah	-4958
▁Associ	-4959
▁Records	-4960
▁dibandingkan	-4961
▁Ten	-4962
▁Pend	-4963
▁8.	-4964
sion	-4965
▁perse	-4966
ology	-4967
▁bunga	-4968
lagu	-4969
▁Brit	-4970
▁anal	-4971
tarikan	-4972
▁500	-4973
jualan	-4974
▁diubah	-4975
▁Day	-4976
▁kesehatan	-4977
▁menyerang	-4978
bach	-4979
ude	-4980
▁kala	-4981
▁site	-4982
▁Putra	-4983
▁member	-4984
▁tersebar	-4985
ght	-4986
kin	-4987
▁Dewa	-4988
▁East	-4989
▁Que	-4990
▁penyel	-4991
out	-4992
▁tipe	-4993
dirinya	-4994
urutan	-4995
▁Kont	-4996
ground	-4997
▁Codex	-4998
▁satuan	-4999
artement	-5000
▁2014	-5001
▁bulu	-5002
▁China	-5003
▁berpenduduk	-5004
▁komunikasi	-5005
gunaan	-5006
▁mencetak	-5007
ropis	-5008
▁Ayahnya	-5009
▁komunitas	-5010
egas	-5011
▁News	-5012
▁Tamb	-5013
ejabat	-5014
▁Adipati	-5015
▁meningkatkan	-5016
▁Jika	-5017
▁Georg	-5018
▁Flores	-5019
▁Victor	-5020
wood	-5021
▁Sud	-5022
NA	-5023
anji	-5024
▁Reg	-5025
▁Max	-5026
41	-5027
51	-5028
SS	-5029
▁apa	-5030
▁Samudra	-5031
abad	-5032
▁Persia	-5033
▁mengorbit	-5034
▁kakak	-5035
▁massa	-5036
▁ram	-5037
▁tanda	-5038
▁konser	-5039
▁Football	-5040
yanya	-5041
gional	-5042
▁metode	-5043
▁pembalap	-5044
ason	-5045
injam	-5046
▁biru	-5047
uto	-5048
▁Part	-5049
▁Tanggal	-5050
▁daging	-5051
▁mengatakan	-5052
▁mempelajari	-5053
▁pasi	-5054
▁Green	-5055
▁Francis	-5056
▁memasuki	-5057
▁terpisah	-5058
unjung	-5059
▁kepem	-5060
esmikan	-5061
▁Internet	-5062
▁diikuti	-5063
▁diperkenalkan	-5064
▁Mill	-5065
▁Kari	-5066
▁bilangan	-5067
eraj	-5068
tahun	-5069
atap	-5070
ics	-5071
ulyo	-5072
▁landa	-5073
77	-5074
Bahasa	-5075
▁sekitarnya	-5076
hanc	-5077
okteran	-5078
▁1989	-5079
▁Walaupun	-5080
AL	-5081
-10	-5082
▁daratan	-5083
▁Permainan	-5084
▁Kud	-5085
alin	-5086
bama	-5087
antai	-5088
grasi	-5089
▁Akademi	-5090
eon	-5091
▁Way	-5092
onial	-5093
▁memproduksi	-5094
▁skor	-5095
▁kontes	-5096
ull	-5097
safat	-5098
▁Candi	-5099
▁neg	-5100
▁Manch	-5101
kuit	-5102
egoro	-5103
▁1988	-5104
▁Olahraga	-5105
▁Pakistan	-5106
▁Website	-5107
%.	-5108
fe	-5109
ere	-5110
TP	-5111
pi	-5112
▁reg	-5113
thria	-5114
juga	-5115
rasah	-5116
▁Industri	-5117
▁2012,	-5118
▁Terletak	-5119
▁komersial	-5120
board	-5121
▁memuat	-5122
▁tambahan	-5123
▁Ji	-5124
▁Ray	-5125
▁Cur	-5126
▁Maz	-5127
ublic	-5128
▁rump	-5129
▁segala	-5130
cher	-5131
resi	-5132
▁21.	-5133
▁Alabama	-5134
▁Karakter	-5135
98	-5136
ichi	-5137
▁delapan	-5138
log	-5139
utar	-5140
▁style	-5141
▁College	-5142
▁perkebunan	-5143
oka	-5144
▁Boeing	-5145
▁pelatih	-5146
▁disebabkan	-5147
▁be	-5148
▁Dur	-5149
▁tewas	-5150
▁Penduduknya	-5151
MI	-5152
▁Pam	-5153
▁letaknya	-5154
▁Nabi	-5155
▁kasus	-5156
▁Nus	-5157
▁Temp	-5158
▁Jenis	-5159
ungkinkan	-5160
▁Corporation	-5161
FC	-5162
imewa	-5163
ters	-5164
▁Sus	-5165
asasti	-5166
▁2000.	-5167
sy	-5168
ous	-5169
épartement	-5170
▁Ren	-5171
▁Suci	-5172
▁hist	-5173
▁dilaksan	-5174
▁Gun	-5175
▁menggambarkan	-5176
▁Jean	-5177
▁anim	-5178
▁berkarier	-5179
▁(193	-5180
▁Stev	-5181
▁Milan	-5182
▁dian	-5183
▁liga	-5184
▁terc	-5185
▁divisi	-5186
▁senyawa	-5187
yr	-5188
carea	-5189
icara	-5190
▁Jambi	-5191
▁Wales	-5192
pur	-5193
desh	-5194
▁Pob	-5195
▁pendapat	-5196
▁Penerbangan	-5197
▁Waktu	-5198
▁Street	-5199
▁Calcarea	-5200
▁Alf	-5201
▁suhu	-5202
ilingi	-5203
▁Diskografi	-5204
osis	-5205
▁dibaw	-5206
▁desain	-5207
ingen	-5208
▁Lang	-5209
▁Manag	-5210
ualitas	-5211
▁Neptunus	-5212
▁menempati	-5213
▁dilaksanakan	-5214
▁ac	-5215
▁Est	-5216
▁Selat	-5217
▁pimpinan	-5218
▁Masyarakat	-5219
gung	-5220
AD	-5221
▁Fred	-5222
▁pengusaha	-5223
▁00	-5224
ogen	-5225
kantor	-5226
▁Kedung	-5227
▁Setiap	-5228
vent	-5229
versi	-5230
▁ditan	-5231
▁sik	-5232
▁Konf	-5233
▁Tujuan	-5234
▁Pos	-5235
ão	-5236
eck	-5237
▁One	-5238
▁Manda	-5239
▁perl	-5240
enam	-5241
abila	-5242
▁astronom	-5243
desa	-5244
itch	-5245
▁Ts	-5246
umbu	-5247
▁bila	-5248
▁kalender	-5249
▁3,	-5250
▁kos	-5251
▁Greg	-5252
▁dll	-5253
▁cinta	-5254
▁memakai	-5255
odo	-5256
▁kebu	-5257
tengah	-5258
cs	-5259
pon	-5260
▁keju	-5261
▁molek	-5262
▁gl	-5263
▁lam	-5264
▁bantuan	-5265
09	-5266
▁Mr	-5267
▁Mana	-5268
▁Tam	-5269
▁bet	-5270
ondis	-5271
▁Bangunan	-5272
▁mahasiswa	-5273
ikiran	-5274
▁melamb	-5275
▁kalangan	-5276
▁kemenangan	-5277
▁département	-5278
▁Bela	-5279
▁sipil	-5280
lie	-5281
▁Mam	-5282
▁Ped	-5283
insip	-5284
▁1980	-5285
▁jelas	-5286
atasi	-5287
▁Hill	-5288
▁diterima	-5289
▁nominasi	-5290
rak	-5291
ray	-5292
emia	-5293
▁kelima	-5294
▁Kutai	-5295
nu	-5296
ecil	-5297
▁Cons	-5298
▁me	-5299
▁SMAN	-5300
Île	-5301
▁Haw	-5302
▁Sand	-5303
▁Wash	-5304
▁Darat	-5305
▁SE	-5306
▁lamb	-5307
titusi	-5308
▁Kek	-5309
▁Dewi	-5310
▁INS	-5311
▁Kart	-5312
▁kompleks	-5313
▁Op	-5314
▁Ori	-5315
▁Oleh	-5316
▁raya	-5317
▁Micros	-5318
▁Surakarta	-5319
AU	-5320
▁Dayak	-5321
ject	-5322
▁anime	-5323
▁menghadap	-5324
▁Pegunungan	-5325
03	-5326
ors	-5327
▁Skot	-5328
▁Ukra	-5329
▁bertugas	-5330
▁berusaha	-5331
lacion	-5332
▁lepas	-5333
angsawan	-5334
65	-5335
nia	-5336
▁Louis	-5337
▁Transn	-5338
▁kontrak	-5339
▁walaupun	-5340
▁wakil	-5341
▁saling	-5342
raja	-5343
▁dioperasikan	-5344
undian	-5345
▁pembentukan	-5346
▁individ	-5347
erial	-5348
▁Cast	-5349
▁Govern	-5350
69	-5351
ket	-5352
orit	-5353
▁Nap	-5354
▁But	-5355
▁dulu	-5356
BB	-5357
▁hati	-5358
▁dihasilkan	-5359
▁marga	-5360
angkalan	-5361
hluk	-5362
eluru	-5363
▁Paulus	-5364
elop	-5365
be	-5366
▁NAS	-5367
▁ken	-5368
▁mik	-5369
▁kebijakan	-5370
lus	-5371
▁SC	-5372
jen	-5373
▁Seni	-5374
ugerah	-5375
▁puluh	-5376
▁Kos	-5377
▁komponen	-5378
▁elektronik	-5379
▁asing	-5380
endali	-5381
▁2003.	-5382
▁gagal	-5383
▁kebut	-5384
▁layar	-5385
▁Sentai	-5386
▁Operasi	-5387
04	-5388
▁Las	-5389
▁kiri	-5390
▁1982	-5391
tifikasi	-5392
iden	-5393
yair	-5394
▁dek	-5395
okerto	-5396
88	-5397
▁po	-5398
araf	-5399
▁mengacu	-5400
ego	-5401
intah	-5402
▁Akhir	-5403
▁th	-5404
amis	-5405
▁Henry	-5406
ces	-5407
ody	-5408
▁tempur	-5409
▁Skotlandia	-5410
asy	-5411
rick	-5412
▁Mid	-5413
▁pemilik	-5414
▁kebutuhan	-5415
alib	-5416
▁State	-5417
butuhkan	-5418
▁Bulan	-5419
engkapi	-5420
jur	-5421
craft	-5422
▁sent	-5423
▁motor	-5424
▁Kereta	-5425
▁Finlandia	-5426
▁official	-5427
▁Washington	-5428
▁She	-5429
▁drum	-5430
▁klasik	-5431
▁Armada	-5432
▁remaja	-5433
reditasi	-5434
▁Press	-5435
▁Atl	-5436
▁Perp	-5437
▁seks	-5438
▁menduduki	-5439
tein	-5440
▁Som	-5441
▁UN	-5442
▁Mov	-5443
▁dokter	-5444
oo	-5445
lav	-5446
▁pencaharian	-5447
▁istan	-5448
▁terbatas	-5449
▁0-	-5450
apun	-5451
▁nuk	-5452
▁jawab	-5453
MA	-5454
adar	-5455
itor	-5456
▁Nam	-5457
▁Berk	-5458
▁logam	-5459
▁Selandia	-5460
▁Transneptunus	-5461
▁Tangerang	-5462
▁gadis	-5463
▁dijual	-5464
▁transportasi	-5465
▁Tol	-5466
▁Motor	-5467
ordinat	-5468
▁urutan	-5469
France	-5470
▁hotel	-5471
madiyah	-5472
▁le	-5473
omotif	-5474
▁memegang	-5475
▁memungkinkan	-5476
▁ran	-5477
▁campuran	-5478
▁Fat	-5479
▁Inc	-5480
▁Adam	-5481
▁1984	-5482
▁manajemen	-5483
▁disebutkan	-5484
06	-5485
▁Rh	-5486
angat	-5487
▁membuka	-5488
▁Awalnya	-5489
eau	-5490
emar	-5491
irah	-5492
▁Nar	-5493
▁tema	-5494
▁Raden	-5495
▁tangk	-5496
▁Pot	-5497
▁Run	-5498
▁Wali	-5499
▁mar	-5500
▁pemberont	-5501
seb	-5502
▁gelombang	-5503
deka	-5504
▁Model	-5505
▁bersaudara	-5506
VD	-5507
▁Cel	-5508
▁Plas	-5509
▁posi	-5510
evi	-5511
set	-5512
wira	-5513
▁Lar	-5514
▁Ayat	-5515
ambahkan	-5516
▁mengoperasikan	-5517
jung	-5518
▁Direktur	-5519
▁pernikahan	-5520
obi	-5521
gasi	-5522
itis	-5523
▁Rat	-5524
▁reaksi	-5525
▁Serdang	-5526
▁Ukraina	-5527
▁perbeda	-5528
▁lapangan	-5529
▁sir	-5530
ike	-5531
ampa	-5532
sc	-5533
▁ringan	-5534
ism	-5535
ogle	-5536
▁Lum	-5537
lima	-5538
▁INSEE	-5539
▁tampak	-5540
▁Sej	-5541
▁angkatan	-5542
▁Open	-5543
▁2013.	-5544
▁32	-5545
▁Bentuk	-5546
elli	-5547
▁22.	-5548
▁Saw	-5549
turut	-5550
ree	-5551
ilasi	-5552
▁pintu	-5553
▁Island	-5554
▁kecuali	-5555
▁Microsoft	-5556
▁Villa	-5557
▁ketua	-5558
▁ex	-5559
▁Hab	-5560
▁Bern	-5561
▁terlalu	-5562
▁berpartisipasi	-5563
Un	-5564
;"	-5565
▁''	-5566
anjutan	-5567
istrinya	-5568
▁diresmikan	-5569
opsi	-5570
▁Cer	-5571
ropolitan	-5572
▁Didirikan	-5573
unggu	-5574
▁Association	-5575
ehi	-5576
▁Moj	-5577
cayaan	-5578
ahankan	-5579
▁Daniel	-5580
▁dika	-5581
▁Av	-5582
▁prak	-5583
ondisemen	-5584
5).	-5585
▁Samb	-5586
▁Harry	-5587
uy	-5588
jan	-5589
▁Ky	-5590
esor	-5591
▁Jen	-5592
▁Toba	-5593
▁dilihat	-5594
▁istrinya	-5595
app	-5596
ataan	-5597
▁1987	-5598
▁tersi	-5599
▁Bob	-5600
▁ide	-5601
▁super	-5602
▁melewati	-5603
ble	-5604
dar	-5605
field	-5606
▁dimasuk	-5607
▁berhenti	-5608
▁fisika	-5609
▁persegi	-5610
tions	-5611
▁melambangkan	-5612
▁Cup	-5613
inga	-5614
▁Wis	-5615
▁Juan	-5616
▁sehari	-5617
align	-5618
angin	-5619
▁Jepara	-5620
ebat	-5621
▁vol	-5622
menia	-5623
▁hiburan	-5624
▁Dam	-5625
▁berka	-5626
▁24.	-5627
indahkan	-5628
▁penjualan	-5629
EN	-5630
day	-5631
▁mi	-5632
▁Kaz	-5633
embak	-5634
jing	-5635
▁Tem	-5636
▁Lingk	-5637
▁Jembatan	-5638
essi	-5639
▁Kla	-5640
▁benar	-5641
▁istana	-5642
irasi	-5643
isian	-5644
▁sam	-5645
▁matematika	-5646
str	-5647
▁ال	-5648
irat	-5649
▁dingin	-5650
▁sc	-5651
ayan	-5652
▁Aug	-5653
▁Terb	-5654
▁alami	-5655
fo	-5656
▁Fl	-5657
▁satelit	-5658
▁Madrasah	-5659
▁Bung	-5660
75	-5661
imer	-5662
tidak	-5663
▁tiba	-5664
▁Poblacion	-5665
▁Andr	-5666
▁Solo	-5667
▁komik	-5668
onegoro	-5669
▁menguasai	-5670
ety	-5671
▁manga	-5672
faatkan	-5673
ebo	-5674
olia	-5675
▁Gab	-5676
▁1983	-5677
batasan	-5678
ifinal	-5679
▁Texas	-5680
▁tinda	-5681
▁simbol	-5682
▁kandang	-5683
bin	-5684
laku	-5685
▁23.	-5686
testan	-5687
▁jembatan	-5688
eno	-5689
▁1986	-5690
rama	-5691
▁Series	-5692
▁mengalir	-5693
▁dukuh	-5694
▁beragam	-5695
▁45	-5696
▁17.	-5697
▁Eli	-5698
▁Kro	-5699
▁Luc	-5700
▁kebudayaan	-5701
mun	-5702
opa	-5703
▁XII	-5704
▁terbit	-5705
▁terjun	-5706
guna	-5707
jakan	-5708
umber	-5709
under	-5710
▁Joseph	-5711
estarikan	-5712
dak	-5713
▁Ik	-5714
▁Daya	-5715
▁medali	-5716
64	-5717
jil	-5718
▁Time	-5719
▁bern	-5720
tipula	-5721
▁perbedaan	-5722
get	-5723
asari	-5724
89	-5725
▁kg	-5726
encaharian	-5727
▁Mayoritas	-5728
ream	-5729
▁Nat	-5730
asang	-5731
▁potensi	-5732
▁senapan	-5733
▁Minahasa	-5734
erba	-5735
▁Bell	-5736
▁tenaga	-5737
onan	-5738
▁Wik	-5739
uay	-5740
▁Shi	-5741
▁berkuasa	-5742
▁terbanyak	-5743
▁sawah	-5744
▁anj	-5745
▁bakar	-5746
ukai	-5747
▁bar	-5748
▁Cerita	-5749
▁kepulauan	-5750
▁Kidul	-5751
▁Muhammadiyah	-5752
ion	-5753
▁Fil	-5754
▁sapi	-5755
▁Serbia	-5756
▁berganti	-5757
ongk	-5758
udut	-5759
▁Ulu	-5760
umahan	-5761
05	-5762
buk	-5763
eal	-5764
▁Gad	-5765
▁Toy	-5766
engar	-5767
▁2000,	-5768
▁mekan	-5769
▁Tingkat	-5770
▁dipanggil	-5771
elat	-5772
▁Hid	-5773
tarik	-5774
▁Plan	-5775
CO	-5776
cast	-5777
▁Wid	-5778
kanan	-5779
▁kejuaraan	-5780
lia	-5781
urang	-5782
▁Gran	-5783
▁Penyanyi	-5784
▁dimasukkan	-5785
rof	-5786
▁Bug	-5787
▁Def	-5788
inding	-5789
▁mencoba	-5790
ceae	-5791
▁cer	-5792
▁Fern	-5793
▁menyer	-5794
▁artikel	-5795
▁Institute	-5796
rey	-5797
▁nya	-5798
▁Bond	-5799
▁berkaitan	-5800
▁mengirim	-5801
▁menceritakan	-5802
kab	-5803
▁Dah	-5804
▁Sci	-5805
▁Beng	-5806
▁Hall	-5807
alatan	-5808
pek	-5809
▁Not	-5810
▁Putih	-5811
SI	-5812
▁Muda	-5813
elap	-5814
▁kursi	-5815
att	-5816
ring	-5817
▁Sit	-5818
▁Anti	-5819
▁darat	-5820
▁kumpulan	-5821
▁Alas	-5822
▁Gedung	-5823
▁Dj	-5824
▁Nusantara	-5825
▁02	-5826
otong	-5827
▁part	-5828
▁SMK	-5829
▁Luar	-5830
itori	-5831
▁Kemen	-5832
▁bermatap	-5833
▁2003,	-5834
▁Hon	-5835
▁Pasifik	-5836
▁Yu	-5837
▁perc	-5838
▁Istana	-5839
▁Militer	-5840
▁dalamnya	-5841
▁pedagang	-5842
note	-5843
▁menya	-5844
▁Lombok	-5845
empatan	-5846
inggalan	-5847
▁isi	-5848
▁Abad	-5849
uturkan	-5850
▁terjad	-5851
▁Tentara	-5852
▁Les	-5853
juang	-5854
▁1981	-5855
▁tulang	-5856
▁1985	-5857
▁kaya	-5858
▁perlu	-5859
indungi	-5860
ante	-5861
atnya	-5862
▁makhluk	-5863
▁Dal	-5864
▁rel	-5865
▁diam	-5866
▁Statistik	-5867
▁tem	-5868
▁Sis	-5869
▁duduk	-5870
▁Madrid	-5871
▁pengan	-5872
gabungkan	-5873
waktu	-5874
abiskan	-5875
▁ajaran	-5876
PP	-5877
▁Lima	-5878
▁padi	-5879
obe	-5880
▁80	-5881
▁Rus	-5882
▁lanjut	-5883
▁bendera	-5884
▁25.	-5885
▁Wah	-5886
▁Main	-5887
▁Yohan	-5888
▁Raj	-5889
▁Say	-5890
▁kelapa	-5891
▁keluarganya	-5892
▁diganti	-5893
▁pemerintahannya	-5894
opter	-5895
▁2002.	-5896
▁korban	-5897
▁penampilan	-5898
▁ST	-5899
ange	-5900
elin	-5901
tuag	-5902
enian	-5903
▁Jim	-5904
usalem	-5905
▁lolos	-5906
▁Google	-5907
tuaginta	-5908
St	-5909
uke	-5910
▁Chann	-5911
andatangani	-5912
▁Son	-5913
▁1978	-5914
▁pertemuan	-5915
▁Septuaginta	-5916
▁Sul	-5917
▁bes	-5918
▁Budaya	-5919
▁Undang	-5920
▁membunuh	-5921
etis	-5922
laman	-5923
▁tata	-5924
▁Sport	-5925
ependen	-5926
▁Indah	-5927
én	-5928
▁9.	-5929
araja	-5930
▁pejabat	-5931
▁Pembalap	-5932
▁Cib	-5933
▁Bangla	-5934
▁Barito	-5935
▁Edward	-5936
rot	-5937
gawai	-5938
erbang	-5939
▁Region	-5940
▁Christi	-5941
▁Revolusi	-5942
cy	-5943
-199	-5944
jahan	-5945
arawan	-5946
▁kanan	-5947
▁Barang	-5948
ulum	-5949
▁Prestasi	-5950
▁Call	-5951
▁Labu	-5952
▁kand	-5953
▁obat	-5954
▁Berisi	-5955
▁Kristus	-5956
▁Deli	-5957
ns	-5958
ady	-5959
▁mengadakan	-5960
can	-5961
cio	-5962
▁setengah	-5963
ako	-5964
hip	-5965
▁God	-5966
▁Berlin	-5967
rie	-5968
▁dipercaya	-5969
▁ras	-5970
▁Albert	-5971
▁upacara	-5972
▁ne	-5973
▁1945	-5974
▁Young	-5975
▁memperk	-5976
fal	-5977
unjungi	-5978
▁musisi	-5979
▁penonton	-5980
▁Bib	-5981
▁Mada	-5982
▁Mary	-5983
▁Swasta	-5984
▁pemukiman	-5985
etes	-5986
▁Cas	-5987
acing	-5988
▁dialek	-5989
▁relatif	-5990
▁Management	-5991
dai	-5992
elo	-5993
andu	-5994
▁Bre	-5995
dagri	-5996
ukota	-5997
usnya	-5998
▁label	-5999
▁Pemenang	-6000
▁Semenanjung	-6001
400	-6002
▁RC	-6003
ento	-6004
▁harga	-6005
▁Tw	-6006
▁Samar	-6007
▁halaman	-6008
▁Komputer	-6009
63	-6010
uhur	-6011
tus	-6012
▁Vo	-6013
andra	-6014
itual	-6015
urunkan	-6016
▁kecelakaan	-6017
▁Gil	-6018
atiannya	-6019
▁Namanya	-6020
background	-6021
%,	-6022
▁Ev	-6023
atik	-6024
▁Drs	-6025
▁Tech	-6026
▁pensi	-6027
▁1980-	-6028
▁pengel	-6029
stan	-6030
▁Lay	-6031
▁pang	-6032
aksasa	-6033
▁menentukan	-6034
cia	-6035
umbang	-6036
▁balap	-6037
▁Hingga	-6038
▁Lokasi	-6039
▁mengumumkan	-6040
oku	-6041
antes	-6042
estik	-6043
itkan	-6044
▁aksi	-6045
▁Games	-6046
▁semen	-6047
▁Sekretaris	-6048
▁Kapal	-6049
▁pembawa	-6050
▁keka	-6051
entasi	-6052
▁individu	-6053
lex	-6054
put	-6055
enia	-6056
▁format	-6057
▁panggung	-6058
bour	-6059
▁AKB	-6060
andai	-6061
▁1979	-6062
▁Mars	-6063
▁susu	-6064
asikan	-6065
▁penjaga	-6066
▁telepon	-6067
▁pendukung	-6068
aton	-6069
▁pep	-6070
▁2001.	-6071
▁Hidup	-6072
▁Yohanes	-6073
yp	-6074
ekutif	-6075
indahan	-6076
▁Protestan	-6077
ilu	-6078
sky	-6079
▁2002,	-6080
akia	-6081
elle	-6082
▁beragama	-6083
idge	-6084
▁rute	-6085
▁Simon	-6086
▁WI	-6087
▁Fac	-6088
▁ribu	-6089
▁animasi	-6090
▁penyerang	-6091
▁baga	-6092
▁Fisika	-6093
▁dinasti	-6094
▁lambang	-6095
▁molekul	-6096
▁didasarkan	-6097
hol	-6098
–200	-6099
ridge	-6100
etap	-6101
▁Sig	-6102
▁Ceko	-6103
▁Kulon	-6104
▁Natal	-6105
lok	-6106
▁5,	-6107
tant	-6108
▁int	-6109
▁ciri	-6110
ukungan	-6111
▁MI	-6112
ross	-6113
tual	-6114
▁biaya	-6115
▁Night	-6116
ipal	-6117
▁Sala	-6118
▁Central	-6119
▁Dik	-6120
▁con	-6121
rench	-6122
▁Good	-6123
▁Guru	-6124
▁minggu	-6125
sep	-6126
usik	-6127
▁Pin	-6128
juangan	-6129
akam	-6130
▁Pay	-6131
▁keter	-6132
▁latar	-6133
arenakan	-6134
▁ir	-6135
▁induk	-6136
the	-6137
▁misi	-6138
ternatif	-6139
▁Kabinet	-6140
mis	-6141
▁Nort	-6142
▁Lapangan	-6143
▁penyelenggara	-6144
▁Seg	-6145
nah	-6146
▁toko	-6147
▁Channel	-6148
ube	-6149
okok	-6150
▁efek	-6151
▁tahu	-6152
▁menara	-6153
▁mes	-6154
erian	-6155
ition	-6156
▁Clathria	-6157
lish	-6158
asaran	-6159
▁menjelaskan	-6160
▁unik	-6161
▁Angeles	-6162
▁Turnamen	-6163
urik	-6164
▁Lem	-6165
td	-6166
▁SK	-6167
kira	-6168
oritas	-6169
▁akses	-6170
▁siswa	-6171
▁alasan	-6172
epatnya	-6173
▁6–	-6174
rist	-6175
▁Metro	-6176
▁kaisar	-6177
▁Tata	-6178
▁ekor	-6179
ulusan	-6180
▁Senapan	-6181
usak	-6182
▁Ses	-6183
▁bas	-6184
▁pertunjukan	-6185
▁Pelatih	-6186
▁ditempat	-6187
wat	-6188
▁Ash	-6189
sburg	-6190
▁Koto	-6191
▁Sind	-6192
▁bukit	-6193
-17	-6194
▁aw	-6195
▁1970	-6196
▁Zaman	-6197
▁sudut	-6198
aceae	-6199
▁Ef	-6200
▁1977	-6201
''	-6202
ingi	-6203
modium	-6204
▁pinggiran	-6205
mosi	-6206
osen	-6207
▁Dig	-6208
ormatan	-6209
▁sektor	-6210
▁Palembang	-6211
lir	-6212
lis	-6213
▁Kut	-6214
▁Nav	-6215
ution	-6216
▁Injil	-6217
zy	-6218
lag	-6219
▁Hati	-6220
▁Indo	-6221
▁Kela	-6222
▁batang	-6223
87	-6224
mah	-6225
ose	-6226
▁ob	-6227
▁Gus	-6228
▁Sap	-6229
▁dist	-6230
▁teks	-6231
▁museum	-6232
▁lapisan	-6233
▁filsafat	-6234
etri	-6235
wara	-6236
▁Bulg	-6237
▁berpusat	-6238
▁Yerusalem	-6239
▁dikatakan	-6240
ektar	-6241
akaran	-6242
▁Merupakan	-6243
▁nag	-6244
▁Ungg	-6245
▁Kudus	-6246
yatakan	-6247
▁kertas	-6248
▁mili	-6249
▁samping	-6250
▁Sinetron	-6251
▁Plasmodium	-6252
▁pertahanan	-6253
peng	-6254
▁Bekasi	-6255
▁menjalankan	-6256
ski	-6257
▁Drama	-6258
▁turut	-6259
▁tropis	-6260
▁Kelompok	-6261
▁hidupnya	-6262
▁bersamaan	-6263
enan	-6264
ebaran	-6265
▁dokumen	-6266
▁Manchester	-6267
anye	-6268
▁Jin	-6269
▁pres	-6270
▁Royal	-6271
entikan	-6272
entitas	-6273
▁Senjata	-6274
▁Seorang	-6275
off	-6276
antau	-6277
▁calon	-6278
esan	-6279
▁Kawasan	-6280
▁dilengkapi	-6281
97	-6282
rang	-6283
ette	-6284
hani	-6285
lihat	-6286
urnal	-6287
▁Marga	-6288
▁minuman	-6289
▁putaran	-6290
▁kepercayaan	-6291
PG	-6292
▁Dim	-6293
tures	-6294
▁meminta	-6295
);	-6296
lop	-6297
▁70	-6298
agan	-6299
atis	-6300
esta	-6301
▁internet	-6302
AF	-6303
bag	-6304
ots	-6305
ways	-6306
vensi	-6307
▁Show	-6308
▁gempa	-6309
▁memenuhi	-6310
▁beb	-6311
▁rah	-6312
ategis	-6313
ebasan	-6314
▁diakui	-6315
▁gubernur	-6316
▁1960	-6317
▁kuliah	-6318
▁Alexander	-6319
ucu	-6320
▁Fe	-6321
ontalo	-6322
▁konflik	-6323
▁membuatnya	-6324
▁so	-6325
▁Tap	-6326
ihara	-6327
▁lurus	-6328
▁Nagari	-6329
▁dicatat	-6330
edak	-6331
▁Far	-6332
▁Irak	-6333
▁Peserta	-6334
▁kapasitas	-6335
eus	-6336
gam	-6337
▁kat	-6338
▁ula	-6339
angkah	-6340
forman	-6341
▁House	-6342
▁Sosial	-6343
▁peluru	-6344
▁teater	-6345
PD	-6346
▁Gib	-6347
▁Gerakan	-6348
▁Pasukan	-6349
▁mengeluarkan	-6350
▁Kaw	-6351
▁1974	-6352
ederasi	-6353
▁person	-6354
▁Penggunaan	-6355
echt	-6356
▁Ran	-6357
▁bertanggung	-6358
acang	-6359
▁Great	-6360
▁Bendera	-6361
▁Bangladesh	-6362
utur	-6363
▁300	-6364
▁waf	-6365
▁kuda	-6366
▁Chris	-6367
▁Liber	-6368
▁pertumbuhan	-6369
▁Der	-6370
▁Pasir	-6371
▁mempertahankan	-6372
dim	-6373
arth	-6374
definisi	-6375
elopment	-6376
▁dikelola	-6377
▁lihat	-6378
▁perjanjian	-6379
▁Kak	-6380
oharjo	-6381
▁anjing	-6382
▁kering	-6383
non	-6384
▁36	-6385
▁Ya	-6386
▁ny	-6387
okan	-6388
▁ilmuwan	-6389
▁kolonial	-6390
▁kematiannya	-6391
ün	-6392
now	-6393
ardo	-6394
▁Brun	-6395
ekolah	-6396
▁pencipta	-6397
▁rangkaian	-6398
▁say	-6399
alaya	-6400
▁Perguruan	-6401
uch	-6402
damp	-6403
enek	-6404
▁Cul	-6405
▁ISO	-6406
▁gula	-6407
ebutan	-6408
▁bangsawan	-6409
▁berdirinya	-6410
▁Bata	-6411
ection	-6412
▁formal	-6413
▁pakaian	-6414
▁Jarak	-6415
ery	-6416
ken	-6417
Amer	-6418
ison	-6419
▁Heart	-6420
▁serupa	-6421
US	-6422
sih	-6423
▁dukungan	-6424
▁Gorontalo	-6425
▁Bri	-6426
▁Yus	-6427
▁Dong	-6428
▁singkatan	-6429
▁Administrasi	-6430
bub	-6431
▁ta	-6432
agen	-6433
erre	-6434
▁Kuta	-6435
▁situ	-6436
▁Golden	-6437
uro	-6438
este	-6439
rogen	-6440
▁alih	-6441
kripsi	-6442
▁Johann	-6443
▁segera	-6444
dat	-6445
▁Cara	-6446
▁solo	-6447
jemahkan	-6448
ador	-6449
▁Aer	-6450
▁foto	-6451
▁ft	-6452
masin	-6453
▁1976	-6454
damaian	-6455
▁(4	-6456
▁15.	-6457
▁teg	-6458
right	-6459
▁Moham	-6460
▁Rasi	-6461
▁kola	-6462
▁temb	-6463
▁Aleks	-6464
▁Armenia	-6465
▁menolak	-6466
hancurkan	-6467
inyanyikan	-6468
▁4,	-6469
ijan	-6470
work	-6471
▁Nep	-6472
▁Town	-6473
▁Perpustakaan	-6474
▁beral	-6475
▁Kediri	-6476
▁menghabiskan	-6477
nie	-6478
arif	-6479
▁roda	-6480
omatis	-6481
▁benua	-6482
▁singkat	-6483
▁kesa	-6484
▁tekanan	-6485
yana	-6486
▁arsitektur	-6487
▁Avi	-6488
▁Pekan	-6489
▁memang	-6490
▁Pesantren	-6491
suf	-6492
eluk	-6493
▁Oli	-6494
formance	-6495
2).	-6496
▁Sr	-6497
▁Big	-6498
▁com	-6499
▁2013,	-6500
▁direk	-6501
erahkan	-6502
▁dinyatakan	-6503
.000	-6504
last	-6505
▁peralatan	-6506
▁TK	-6507
▁Japan	-6508
▁Kanton	-6509
▁akadem	-6510
DA	-6511
imat	-6512
ogan	-6513
▁Sto	-6514
▁Pram	-6515
▁semi	-6516
enting	-6517
▁Majelis	-6518
▁Portugis	-6519
urit	-6520
▁Nas	-6521
▁(2001)	-6522
▁French	-6523
▁Bulgaria	-6524
uluki	-6525
elahan	-6526
▁Bangka	-6527
▁Tepatnya	-6528
▁alternatif	-6529
▁digambarkan	-6530
PN	-6531
osh	-6532
orks	-6533
▁Sip	-6534
▁Dist	-6535
▁Kimia	-6536
▁Local	-6537
▁Masor	-6538
▁Smith	-6539
▁dikeluarkan	-6540
adai	-6541
final	-6542
▁sebagainya	-6543
alongan	-6544
61	-6545
nik	-6546
▁AC	-6547
▁tab	-6548
▁Kecil	-6549
▁polisi	-6550
▁Simpang	-6551
uen	-6552
angkal	-6553
▁Wan	-6554
▁Lalu	-6555
▁rilis	-6556
▁produsen	-6557
▁FM	-6558
wati	-6559
▁Leon	-6560
▁usul	-6561
▁Bapak	-6562
▁masakan	-6563
▁vokalis	-6564
▁),	-6565
ahit	-6566
▁DVD	-6567
▁dibawa	-6568
▁sarana	-6569
▁British	-6570
▁bermarkas	-6571
▁90	-6572
▁Det	-6573
obatan	-6574
▁Antar	-6575
▁hilang	-6576
▁merasa	-6577
udaranya	-6578
▁sepuluh	-6579
jas	-6580
kom	-6581
low	-6582
▁suci	-6583
▁Balai	-6584
▁melin	-6585
▁dikirim	-6586
▁Pemilihan	-6587
rac	-6588
▁Cab	-6589
▁rom	-6590
▁Maka	-6591
▁Nias	-6592
uwangi	-6593
▁mendi	-6594
▁Cil	-6595
▁Hor	-6596
▁Babak	-6597
zen	-6598
ambu	-6599
▁tar	-6600
▁pemuda	-6601
▁protein	-6602
▁7,	-6603
▁upaya	-6604
band	-6605
igur	-6606
skup	-6607
▁Acant	-6608
▁mengur	-6609
▁karyanya	-6610
par	-6611
span	-6612
▁Kus	-6613
▁tuan	-6614
▁Masehi	-6615
ksanakan	-6616
▁u	-6617
▁zat	-6618
▁vari	-6619
wijaya	-6620
▁jarang	-6621
▁pensiun	-6622
met	-6623
enom	-6624
▁Niger	-6625
▁Project	-6626
▁klasifikasi	-6627
▁38	-6628
umsi	-6629
▁Kop	-6630
dahulu	-6631
▁sulit	-6632
wig	-6633
aktif	-6634
▁Mataram	-6635
UN	-6636
ews	-6637
etta	-6638
▁Fal	-6639
▁Hat	-6640
▁Sent	-6641
▁umur	-6642
▁Unggulan	-6643
▁dikarenakan	-6644
esik	-6645
itat	-6646
▁Sak	-6647
▁Serv	-6648
ekatan	-6649
▁indah	-6650
▁Soekar	-6651
LA	-6652
▁bo	-6653
▁Imam	-6654
pirasi	-6655
▁Gelar	-6656
ography	-6657
▁Georgia	-6658
▁menyimp	-6659
ikir	-6660
▁1973	-6661
▁1970-	-6662
▁Manaj	-6663
▁jenderal	-6664
▁Aks	-6665
▁Yon	-6666
▁menjual	-6667
definisikan	-6668
▁Ty	-6669
▁BBC	-6670
▁seng	-6671
▁domestik	-6672
uskupan	-6673
▁faktor	-6674
▁gabungan	-6675
▁Akreditasi	-6676
▁Banjarmasin	-6677
▁Stan	-6678
icipal	-6679
▁Sampai	-6680
▁satunya	-6681
gio	-6682
▁Cy	-6683
ebes	-6684
▁sekelompok	-6685
").	-6686
▁keda	-6687
▁(2005)	-6688
▁General	-6689
▁angkasa	-6690
▁beserta	-6691
▁rencana	-6692
▁perannya	-6693
/19	-6694
▁Uskup	-6695
▁mengatur	-6696
▁tindakan	-6697
--	-6698
▁Sor	-6699
▁Daud	-6700
olisian	-6701
▁Pertanian	-6702
▁Kualifikasi	-6703
▁dinyanyikan	-6704
sor	-6705
▁us	-6706
▁Cru	-6707
ipedia	-6708
▁(2007)	-6709
lon	-6710
▁Dib	-6711
▁imp	-6712
▁Broad	-6713
omunikasi	-6714
▁penerbit	-6715
▁Peraturan	-6716
agar	-6717
card	-6718
emuka	-6719
▁kalah	-6720
▁keputusan	-6721
▁Bun	-6722
▁term	-6723
▁membaw	-6724
ista	-6725
ocok	-6726
▁sil	-6727
▁kira	-6728
▁binatang	-6729
▁Perangkat	-6730
100	-6731
sman	-6732
umas	-6733
▁Boh	-6734
▁Gel	-6735
indung	-6736
▁1999.	-6737
▁Ganda	-6738
▁Virgin	-6739
▁Hu	-6740
▁Ton	-6741
▁coklat	-6742
▁pelayanan	-6743
zar	-6744
eliti	-6745
▁Keputusan	-6746
FF	-6747
▁É	-6748
epak	-6749
▁How	-6750
▁perairan	-6751
▁strategis	-6752
jib	-6753
ques	-6754
tiga	-6755
skerta	-6756
▁Carol	-6757
▁Roman	-6758
iset	-6759
uban	-6760
▁Sib	-6761
▁1975	-6762
▁Proses	-6763
▁miliar	-6764
▁sembilan	-6765
▁terlestarikan	-6766
DI	-6767
won	-6768
▁fot	-6769
▁Sastra	-6770
upu	-6771
....	-6772
arki	-6773
arasi	-6774
ector	-6775
erson	-6776
ister	-6777
▁Corn	-6778
▁Shah	-6779
Indonesia	-6780
cu	-6781
imbul	-6782
okrasi	-6783
▁pelaks	-6784
erbaijan	-6785
umpulkan	-6786
ej	-6787
▁Lubuk	-6788
▁Pekalongan	-6789
egan	-6790
oshi	-6791
▁Rod	-6792
onald	-6793
tansi	-6794
▁Fort	-6795
▁Gram	-6796
▁tiap	-6797
awahan	-6798
▁telur	-6799
▁Yehuda	-6800
▁pekerja	-6801
▁Francisco	-6802
atar	-6803
▁psik	-6804
ack	-6805
gas	-6806
ustaka	-6807
▁tahap	-6808
▁Karangan	-6809
rin	-6810
▁Berbagai	-6811
▁terjadinya	-6812
▁Performance	-6813
wah	-6814
▁basis	-6815
▁sahabat	-6816
▁keamanan	-6817
–201	-6818
ilaku	-6819
▁Sisi	-6820
esarkan	-6821
▁jangka	-6822
▁karbon	-6823
▁Biasanya	-6824
elik	-6825
rio	-6826
▁Live	-6827
dominasi	-6828
▁Airport	-6829
▁dimaksud	-6830
▁Has	-6831
▁teb	-6832
donia	-6833
center	-6834
▁(2006)	-6835
▁Produc	-6836
bas	-6837
quar	-6838
▁end	-6839
▁Anda	-6840
▁Hadiah	-6841
▁Ketiga	-6842
OC	-6843
▁Ny	-6844
agung	-6845
▁2020	-6846
▁Ever	-6847
etakan	-6848
▁melintasi	-6849
▁menerbitkan	-6850
sb	-6851
▁Blo	-6852
▁Jum	-6853
rajan	-6854
▁inti	-6855
▁mini	-6856
▁seja	-6857
ulukan	-6858
▁Bunga	-6859
▁Development	-6860
oe	-6861
erapan	-6862
▁Sempat	-6863
95	-6864
sey	-6865
▁maju	-6866
▁Mesin	-6867
76	-6868
ér	-6869
▁Tah	-6870
▁tek	-6871
▁Adapun	-6872
▁mencatat	-6873
▁perhatian	-6874
acar	-6875
egah	-6876
angkut	-6877
isihan	-6878
▁padat	-6879
atangan	-6880
▁Federasi	-6881
▁kehilangan	-6882
PT	-6883
edo	-6884
feld	-6885
mail	-6886
▁Keuangan	-6887
zair	-6888
ejarah	-6889
▁Menara	-6890
tag	-6891
ragon	-6892
▁Sara	-6893
▁agak	-6894
▁pemro	-6895
85	-6896
ald	-6897
ewa	-6898
hai	-6899
▁sarjana	-6900
▁Cos	-6901
▁1968	-6902
▁Doug	-6903
▁Ferr	-6904
▁1998.	-6905
agamaan	-6906
hak	-6907
▁33	-6908
okia	-6909
▁Aur	-6910
▁Had	-6911
asilan	-6912
▁raksasa	-6913
ía	-6914
▁IX	-6915
▁pi	-6916
inci	-6917
▁Alja	-6918
eluruh	-6919
ekuensi	-6920
▁ur	-6921
▁Hot	-6922
▁tahunan	-6923
▁melaksanakan	-6924
AI	-6925
mos	-6926
owo	-6927
tive	-6928
▁merebut	-6929
▁Buk	-6930
▁Kay	-6931
endang	-6932
▁apabila	-6933
▁menjaga	-6934
▁terkemuka	-6935
▁16.	-6936
▁von	-6937
ambangan	-6938
▁Federal	-6939
▁membela	-6940
▁Istimewa	-6941
▁Pelabuhan	-6942
ding	-6943
▁dihuni	-6944
imbulkan	-6945
▁Barangay	-6946
▁bertujuan	-6947
▁Blue	-6948
▁Chic	-6949
▁Road	-6950
▁persi	-6951
)"	-6952
erg	-6953
try	-6954
▁rum	-6955
▁arus	-6956
▁regional	-6957
▁Kesehatan	-6958
▁Politikus	-6959
▁Azerbaijan	-6960
▁Banyuwangi	-6961
▁Karl	-6962
▁graf	-6963
▁Satuan	-6964
▁dulunya	-6965
elm	-6966
umpur	-6967
▁Lahir	-6968
▁Norte	-6969
▁Magelang	-6970
▁Your	-6971
▁inilah	-6972
▁senior	-6973
Han	-6974
ibu	-6975
tah	-6976
▁Tir	-6977
ittle	-6978
▁Venez	-6979
▁mikro	-6980
PM	-6981
hta	-6982
▁Cha	-6983
▁Mall	-6984
▁plas	-6985
enjata	-6986
▁dipert	-6987
▁kualifikasi	-6988
lot	-6989
rum	-6990
▁didukung	-6991
▁golongan	-6992
▁kejadian	-6993
-12	-6994
his	-6995
ited	-6996
▁Out	-6997
artawan	-6998
awarkan	-6999
▁$	-7000
▁1972	-7001
▁Chili	-7002
imbangan	-7003
encanakan	-7004
▁Kotamadya	-7005
86	-7006
▁Jay	-7007
antis	-7008
▁1990-	-7009
▁melah	-7010
trakurik	-7011
▁diperoleh	-7012
▁disiarkan	-7013
▁pengundian	-7014
tal	-7015
arum	-7016
markt	-7017
umbia	-7018
▁ayam	-7019
▁mula	-7020
▁nabi	-7021
ekonom	-7022
porkan	-7023
▁Lawas	-7024
▁fitur	-7025
▁Christian	-7026
agam	-7027
odal	-7028
▁Isi	-7029
estina	-7030
zin	-7031
▁Ly	-7032
▁Shin	-7033
▁Sakit	-7034
▁praktik	-7035
▁Abdullah	-7036
hu	-7037
▁5:	-7038
▁Dor	-7039
epala	-7040
▁Mang	-7041
▁paruh	-7042
▁hektar	-7043
ombinasi	-7044
▁mengakibatkan	-7045
-20	-7046
laim	-7047
▁Fut	-7048
▁2015	-7049
▁Oper	-7050
▁plat	-7051
elayan	-7052
untungan	-7053
▁Pertandingan	-7054
▁±	-7055
▁Len	-7056
trakurikuler	-7057
icro	-7058
▁Aut	-7059
▁Gold	-7060
gerakan	-7061
▁jurusan	-7062
▁peninggalan	-7063
▁pil	-7064
nyata	-7065
ormal	-7066
▁meman	-7067
▁(2004)	-7068
▁jantung	-7069
▁Nu	-7070
bang	-7071
▁Saudi	-7072
▁menetap	-7073
osok	-7074
adopsi	-7075
▁analisis	-7076
▁kerus	-7077
▁sebab	-7078
▁skala	-7079
▁harian	-7080
erikatan	-7081
kop	-7082
kson	-7083
wangi	-7084
▁dipl	-7085
▁angin	-7086
▁Kalender	-7087
lad	-7088
trum	-7089
▁Kad	-7090
ature	-7091
▁pembuat	-7092
elajah	-7093
▁Hanya	-7094
olas	-7095
▁Mali	-7096
▁Mazmur	-7097
▁bakteri	-7098
▁disusun	-7099
▁membeli	-7100
DF	-7101
▁menawarkan	-7102
elly	-7103
ekonomian	-7104
rov	-7105
▁Kin	-7106
endra	-7107
arikan	-7108
▁do	-7109
▁Dec	-7110
▁Madi	-7111
injamkan	-7112
▁Kroasia	-7113
▁Informasi	-7114
ET	-7115
iku	-7116
▁Enc	-7117
ukuhan	-7118
▁Ujung	-7119
▁Tunggal	-7120
uck	-7121
semb	-7122
▁lantai	-7123
ampaikan	-7124
▁dijuluki	-7125
▁ditujukan	-7126
alung	-7127
▁Keju	-7128
▁Pati	-7129
▁Aircraft	-7130
▁Aljazair	-7131
ukses	-7132
▁1971	-7133
▁Musa	-7134
▁Rukun	-7135
▁menganggap	-7136
74	-7137
▁Seh	-7138
▁run	-7139
▁Society	-7140
onim	-7141
▁Gat	-7142
▁Sei	-7143
inyal	-7144
▁Cila	-7145
▁Wetan	-7146
▁perwira	-7147
▁ternyata	-7148
▁mu	-7149
▁ph	-7150
▁Wes	-7151
▁Lain	-7152
▁penyi	-7153
▁Gregori	-7154
jala	-7155
▁Khan	-7156
▁Andre	-7157
▁Artik	-7158
▁bagaimana	-7159
abeth	-7160
ajang	-7161
▁2018	-7162
▁2019	-7163
▁buruh	-7164
▁maksi	-7165
▁berlaku	-7166
▁Sekarang	-7167
▁tetangga	-7168
olan	-7169
isensi	-7170
unuhan	-7171
▁(2003)	-7172
▁(2008)	-7173
▁Kontes	-7174
▁melahirkan	-7175
nal	-7176
top	-7177
▁101	-7178
▁Jack	-7179
▁Bangk	-7180
lawanan	-7181
▁Wangsa	-7182
▁mengund	-7183
▁Pariwisata	-7184
▁tergantung	-7185
edy	-7186
eer	-7187
▁Of	-7188
wana	-7189
anggu	-7190
ubang	-7191
tempat	-7192
▁Meski	-7193
▁Barcel	-7194
▁Persatuan	-7195
AC	-7196
▁Empat	-7197
▁Movie	-7198
▁Antonio	-7199
▁legenda	-7200
div	-7201
erm	-7202
▁Kai	-7203
ustin	-7204
▁Budi	-7205
injaman	-7206
▁menang	-7207
ilat	-7208
▁Dok	-7209
▁Keda	-7210
▁imam	-7211
▁Tetapi	-7212
▁julukan	-7213
▁Angka	-7214
anggilan	-7215
▁kompilasi	-7216
▁1:	-7217
▁Sky	-7218
inder	-7219
poran	-7220
▁iklan	-7221
▁pengganti	-7222
fur	-7223
ransi	-7224
undur	-7225
▁manajer	-7226
▁Kebudayaan	-7227
"),	-7228
bumi	-7229
light	-7230
anggang	-7231
▁membentang	-7232
uko	-7233
alau	-7234
▁App	-7235
▁besi	-7236
▁Mobil	-7237
▁Emirat	-7238
▁dikelilingi	-7239
andr	-7240
ongg	-7241
▁Dit	-7242
▁Tun	-7243
lavia	-7244
▁Anth	-7245
▁Huta	-7246
▁makam	-7247
▁organik	-7248
▁pemberontakan	-7249
akat	-7250
berto	-7251
▁Power	-7252
▁diken	-7253
▁Komisi	-7254
▁angkutan	-7255
CAR	-7256
igan	-7257
▁PBB	-7258
▁Rog	-7259
▁inv	-7260
▁menikahi	-7261
96	-7262
EC	-7263
2),	-7264
▁Jav	-7265
▁Bila	-7266
▁Perwakilan	-7267
zer	-7268
ales	-7269
▁José	-7270
▁wali	-7271
▁wafat	-7272
▁Toyota	-7273
▁Dirilis	-7274
▁menghadapi	-7275
mond	-7276
▁Maur	-7277
▁Pant	-7278
▁pasir	-7279
Amerika	-7280
▁nuklir	-7281
▁membaca	-7282
▁bersejarah	-7283
endo	-7284
▁Cit	-7285
▁col	-7286
intis	-7287
▁Make	-7288
▁Year	-7289
ertian	-7290
▁Laman	-7291
▁keenam	-7292
▁lembah	-7293
bac	-7294
ily	-7295
chus	-7296
▁185	-7297
▁Pus	-7298
▁nasi	-7299
▁ungg	-7300
empatfinal	-7301
otanya	-7302
▁Carlos	-7303
▁penemuan	-7304
">	-7305
"|	-7306
pu	-7307
enangi	-7308
▁dibunuh	-7309
▁1967	-7310
▁Bran	-7311
▁Ilir	-7312
▁Jember	-7313
▁keagamaan	-7314
sin	-7315
▁GP	-7316
ullah	-7317
▁Dhar	-7318
aminya	-7319
▁Alamat	-7320
▁gawang	-7321
anjutnya	-7322
▁Artikel	-7323
▁''(	-7324
▁Brown	-7325
▁lomba	-7326
-15	-7327
con	-7328
oke	-7329
▁Ox	-7330
▁Chan	-7331
unjang	-7332
▁Massa	-7333
300	-7334
ikal	-7335
▁Sas	-7336
▁Antara	-7337
▁Makmur	-7338
indungan	-7339
Is	-7340
▁34	-7341
pulau	-7342
▁rest	-7343
baikan	-7344
▁bulat	-7345
▁pilihan	-7346
▁Barcelona	-7347
▁independen	-7348
▁Gul	-7349
▁arm	-7350
▁Kang	-7351
▁Mukim	-7352
▁puisi	-7353
▁siaran	-7354
ertai	-7355
▁1969	-7356
▁Jadi	-7357
▁sepen	-7358
unggung	-7359
▁pegawai	-7360
▁berpengaruh	-7361
▁membintangi	-7362
▁Rub	-7363
edang	-7364
▁Mangg	-7365
▁bangk	-7366
▁Wanita	-7367
▁berkomp	-7368
▁mengetahui	-7369
▁mo	-7370
▁Micro	-7371
▁bunyi	-7372
▁lok	-7373
untuk	-7374
▁Tern	-7375
elanjaan	-7376
▁Victoria	-7377
▁pahlawan	-7378
eto	-7379
▁Ax	-7380
▁yg	-7381
▁Lew	-7382
▁prinsip	-7383
▁parlemen	-7384
▁gu	-7385
▁ré	-7386
▁Hay	-7387
▁1965	-7388
medesm	-7389
▁Hasan	-7390
▁Kongres	-7391
▁menyebar	-7392
▁Jun	-7393
▁Majalah	-7394
▁Nepal	-7395
medesmia	-7396
▁Geografis	-7397
TC	-7398
iapa	-7399
▁Mol	-7400
▁Haji	-7401
fermarkt	-7402
▁Masoretik	-7403
▁Wikipedia	-7404
▁menangani	-7405
Sem	-7406
press	-7407
udang	-7408
erajat	-7409
UM	-7410
kam	-7411
awas	-7412
▁kas	-7413
iraan	-7414
▁gigi	-7415
alikan	-7416
▁First	-7417
variasi	-7418
▁Paroki	-7419
▁lengkapnya	-7420
usen	-7421
▁WIB	-7422
▁sim	-7423
▁benteng	-7424
▁sewaktu	-7425
ines	-7426
ujur	-7427
▁Tay	-7428
▁Tul	-7429
▁Yak	-7430
obile	-7431
▁1950	-7432
▁1966	-7433
yataan	-7434
▁kebun	-7435
▁berkas	-7436
▁tangkis	-7437
-16	-7438
▁Eth	-7439
▁Dream	-7440
▁gelap	-7441
▁Samarinda	-7442
La	-7443
▁Bei	-7444
anjir	-7445
uteri	-7446
▁Karo	-7447
▁Tari	-7448
▁beras	-7449
▁penga	-7450
▁Samuel	-7451
tidaiyah	-7452
▁percaya	-7453
bara	-7454
ello	-7455
▁Nan	-7456
▁amat	-7457
▁otomatis	-7458
gl	-7459
del	-7460
▁tol	-7461
▁Île	-7462
akhiri	-7463
entingan	-7464
▁Peringkat	-7465
4).	-7466
▁Vik	-7467
▁melainkan	-7468
▁°	-7469
▁Jr	-7470
sonne	-7471
▁(202	-7472
▁Nord	-7473
▁Polit	-7474
▁Athena	-7475
▁kacang	-7476
5%	-7477
ido	-7478
▁Suatu	-7479
▁lirik	-7480
▁ulama	-7481
▁Ec	-7482
▁pur	-7483
▁Marc	-7484
istics	-7485
▁Serie	-7486
▁ditandai	-7487
▁dipengaruhi	-7488
RL	-7489
▁RS	-7490
indak	-7491
ier	-7492
▁Lok	-7493
umpai	-7494
ett	-7495
▁hip	-7496
adapan	-7497
▁1960-	-7498
▁iklim	-7499
Ma	-7500
kata	-7501
▁kritik	-7502
pert	-7503
▁Gam	-7504
▁sepeda	-7505
▁ditutup	-7506
▁promosi	-7507
RW	-7508
▁asi	-7509
enangkan	-7510
▁seksual	-7511
73	-7512
GC	-7513
ATA	-7514
▁Lag	-7515
▁Rud	-7516
▁Rena	-7517
ingatan	-7518
▁serangga	-7519
akah	-7520
imbang	-7521
▁Techn	-7522
▁global	-7523
▁Kebumen	-7524
▁pandangan	-7525
▁je	-7526
▁abu	-7527
▁Biologi	-7528
▁memperkuat	-7529
agn	-7530
pres	-7531
tika	-7532
uransi	-7533
▁sebagaimana	-7534
kah	-7535
idah	-7536
yeong	-7537
erahan	-7538
stitusi	-7539
▁landasan	-7540
▁86	-7541
▁Kum	-7542
▁Pun	-7543
ahana	-7544
ikulum	-7545
▁Perserikatan	-7546
eed	-7547
mpan	-7548
▁Madiun	-7549
▁dibawah	-7550
rol	-7551
▁jet	-7552
mpu	-7553
ahas	-7554
▁Guin	-7555
▁aset	-7556
▁Novel	-7557
▁makna	-7558
▁rasio	-7559
▁anaknya	-7560
▁mulanya	-7561
▁FA	-7562
▁1964	-7563
▁Juga	-7564
▁Sido	-7565
▁play	-7566
▁lawan	-7567
▁tahta	-7568
▁inform	-7569
▁Douglas	-7570
▁referensi	-7571
omen	-7572
▁perintah	-7573
▁profesor	-7574
bis	-7575
▁ev	-7576
color	-7577
▁Ciri	-7578
▁Perh	-7579
▁Asahi	-7580
▁Wisata	-7581
▁39	-7582
▁OS	-7583
▁Fox	-7584
▁ali	-7585
▁Alor	-7586
▁timnas	-7587
▁Chicago	-7588
▁ditambah	-7589
▁Palestina	-7590
▁menjalani	-7591
▁Selanjutnya	-7592
▁mengundurkan	-7593
ents	-7594
▁bag	-7595
▁polit	-7596
atalyon	-7597
▁Khusus	-7598
▁rumpun	-7599
ambridge	-7600
▁lulusan	-7601
▁organisme	-7602
▁Lingkungan	-7603
romosi	-7604
▁Gading	-7605
lem	-7606
▁Dh	-7607
▁{{	-7608
▁2017	-7609
▁Ball	-7610
kelurahan	-7611
ets	-7612
zon	-7613
oreng	-7614
▁Tuan	-7615
▁rukun	-7616
▁Utsman	-7617
▁Airways	-7618
▁peningkatan	-7619
▁serangkaian	-7620
▁berkompetisi	-7621
bek	-7622
ges	-7623
lip	-7624
sat	-7625
zan	-7626
icky	-7627
ikus	-7628
▁Daw	-7629
▁End	-7630
▁metal	-7631
▁Pendiri	-7632
▁26.	-7633
▁prot	-7634
intaan	-7635
lywood	-7636
▁Warga	-7637
▁biologi	-7638
▁seniman	-7639
isla	-7640
wayat	-7641
▁Cham	-7642
▁Peru	-7643
▁bervariasi	-7644
82	-7645
1),	-7646
▁Api	-7647
▁Rama	-7648
ajukan	-7649
▁Rider	-7650
▁kabel	-7651
▁dekade	-7652
▁cokelat	-7653
bur	-7654
▁Mit	-7655
▁Seoul	-7656
▁bukti	-7657
▁Kolomb	-7658
▁Kemendagri	-7659
▁perbelanjaan	-7660
ext	-7661
rain	-7662
ankan	-7663
laten	-7664
ormati	-7665
▁Surya	-7666
▁filsuf	-7667
elamatan	-7668
▁dinding	-7669
▁Pictures	-7670
NC	-7671
▁Pil	-7672
ancang	-7673
elamat	-7674
▁Times	-7675
▁musuh	-7676
▁Pemalang	-7677
▁Yam	-7678
enger	-7679
▁Rang	-7680
▁page	-7681
▁2007)	-7682
xi	-7683
juk	-7684
aham	-7685
▁Yud	-7686
enario	-7687
▁Soekarno	-7688
▁Gh	-7689
ware	-7690
▁maj	-7691
etail	-7692
▁Ober	-7693
▁pesan	-7694
encanaan	-7695
▁direktur	-7696
▁kualitas	-7697
▁peraturan	-7698
▁keberadaan	-7699
satu	-7700
▁Cra	-7701
ukang	-7702
▁Medi	-7703
▁Sony	-7704
▁rekor	-7705
▁(2002)	-7706
▁NASCAR	-7707
▁America	-7708
▁Memiliki	-7709
box	-7710
inju	-7711
▁pari	-7712
▁suka	-7713
▁manis	-7714
▁Produk	-7715
estinasi	-7716
▁Manajemen	-7717
83	-7718
ikh	-7719
imi	-7720
opia	-7721
upai	-7722
▁Dic	-7723
ranya	-7724
▁Urban	-7725
▁kesempatan	-7726
okol	-7727
▁rat	-7728
▁sig	-7729
etapan	-7730
▁keker	-7731
▁Minggu	-7732
▁English	-7733
▁berdarah	-7734
▁pembagian	-7735
▁Pertahanan	-7736
ée	-7737
ingu	-7738
▁Cli	-7739
ulkan	-7740
▁kartu	-7741
▁digelar	-7742
▁Governance	-7743
▁Wir	-7744
▁hor	-7745
▁Lock	-7746
enomena	-7747
▁lembab	-7748
OL	-7749
endak	-7750
▁1962	-7751
▁Nokia	-7752
▁aspek	-7753
▁région	-7754
||	-7755
amo	-7756
2010	-7757
idur	-7758
▁Bil	-7759
▁basket	-7760
▁mengin	-7761
▁seekor	-7762
▁Harapan	-7763
sebelumnya	-7764
ishi	-7765
▁Kebon	-7766
▁aktiv	-7767
tab	-7768
dong	-7769
otaan	-7770
IA	-7771
dae	-7772
cale	-7773
▁2021	-7774
▁akar	-7775
▁menak	-7776
▁Anderson	-7777
▁eksekutif	-7778
▁mengawali	-7779
umni	-7780
▁Tib	-7781
akkan	-7782
▁Vegas	-7783
▁Asosiasi	-7784
▁diumumkan	-7785
▁Kw	-7786
▁mengurangi	-7787
lee	-7788
▁Fu	-7789
apem	-7790
lymp	-7791
risis	-7792
▁Beat	-7793
▁2020,	-7794
▁pinjaman	-7795
▁menimbulkan	-7796
UH	-7797
fiah	-7798
aster	-7799
impunan	-7800
▁(2005).	-7801
▁Batavia	-7802
▁dibesarkan	-7803
OM	-7804
dor	-7805
antinya	-7806
bersama	-7807
▁Herman	-7808
▁positif	-7809
▁dipindahkan	-7810
PK	-7811
▁Pok	-7812
▁Rot	-7813
▁Tag	-7814
▁debutnya	-7815
▁partikel	-7816
OR	-7817
isk	-7818
▁37	-7819
▁alk	-7820
ajian	-7821
dengan	-7822
enaran	-7823
▁volume	-7824
▁berkantor	-7825
▁Akan	-7826
▁Bima	-7827
▁Wonos	-7828
▁melindungi	-7829
atip	-7830
eria	-7831
▁400	-7832
▁teh	-7833
▁Ogan	-7834
▁pola	-7835
artikan	-7836
▁diperlukan	-7837
▁menyebutkan	-7838
anus	-7839
apemdes	-7840
▁pengelola	-7841
nd	-7842
eti	-7843
▁Gem	-7844
▁Area	-7845
▁Jung	-7846
▁Tipe	-7847
Bangsa	-7848
▁Indra	-7849
▁Premi	-7850
▁nenek	-7851
ucapkan	-7852
▁Gresik	-7853
▁Runner	-7854
Sh	-7855
zah	-7856
▁184	-7857
▁ATP	-7858
▁Krajan	-7859
▁Little	-7860
▁Jabatan	-7861
endalikan	-7862
▁dianugerah	-7863
▁AL	-7864
baan	-7865
▁Hom	-7866
▁Sya	-7867
▁pam	-7868
▁pul	-7869
▁dewan	-7870
▁garam	-7871
▁kampus	-7872
▁berpindah	-7873
mais	-7874
▁Meri	-7875
▁Tapan	-7876
entrasi	-7877
rajurit	-7878
▁Suriah	-7879
▁Network	-7880
▁setahun	-7881
▁tergabung	-7882
▁kedokteran	-7883
▁Karanganyar	-7884
▁menjadikannya	-7885
▁penyelenggaraan	-7886
▁Cim	-7887
▁Vat	-7888
ategi	-7889
▁0.06	-7890
▁Anna	-7891
▁pencarian	-7892
▁Transportasi	-7893
–1	-7894
esh	-7895
ilo	-7896
▁By	-7897
inia	-7898
▁Lip	-7899
▁Disc	-7900
▁Down	-7901
▁Nazi	-7902
▁1997.	-7903
▁dipro	-7904
jahatan	-7905
▁gitaris	-7906
▁metropolitan	-7907
IM	-7908
ense	-7909
lian	-7910
▁lel	-7911
▁anda	-7912
▁Girls	-7913
▁Indon	-7914
▁Olymp	-7915
▁Manusia	-7916
▁Columbia	-7917
▁ditentukan	-7918
92	-7919
▁42	-7920
▁1963	-7921
▁diber	-7922
▁kelam	-7923
▁Commun	-7924
▁perjuangan	-7925
▁diterjemahkan	-7926
93	-7927
▁Ry	-7928
▁Beb	-7929
otakan	-7930
▁Sejumlah	-7931
▁suaminya	-7932
▁Fly	-7933
▁Wolf	-7934
▁tari	-7935
▁Gempa	-7936
▁Brunei	-7937
▁membutuhkan	-7938
▁Gon	-7939
Hanzi	-7940
▁Junior	-7941
84	-7942
▁03	-7943
ahat	-7944
evel	-7945
▁SMPN	-7946
▁Warna	-7947
▁diatur	-7948
vy	-7949
bot	-7950
▁www	-7951
istol	-7952
▁reli	-7953
▁Steph	-7954
▁berangg	-7955
▁penyair	-7956
▁pengalaman	-7957
Perempatfinal	-7958
▁Championship	-7959
▁Gay	-7960
▁Sut	-7961
▁‘	-7962
mel	-7963
mann	-7964
▁Kau	-7965
▁pagi	-7966
ach	-7967
oper	-7968
ungu	-7969
▁Bulu	-7970
▁Suka	-7971
Undang	-7972
▁Princ	-7973
▁kerap	-7974
angguan	-7975
▁Essonne	-7976
▁arondisemen	-7977
ambing	-7978
▁kendali	-7979
▁mengangkat	-7980
71	-7981
94	-7982
aci	-7983
iness	-7984
▁Eric	-7985
▁Rach	-7986
▁Tala	-7987
▁Keamanan	-7988
▁memisahkan	-7989
▁Nun	-7990
▁luk	-7991
▁Alat	-7992
▁Ikan	-7993
▁jazz	-7994
▁Hitam	-7995
▁permukiman	-7996
▁dipergunakan	-7997
eu	-7998
és	-7999
ukt	-8000
ujian	-8001
ublish	-8002
sterdam	-8003
▁tuanya	-8004
ANG	-8005
▁ni	-8006
olis	-8007
▁krim	-8008
▁Mayor	-8009
▁Purworejo	-8010
▁penutup	-8011
▁ditempatkan	-8012
▁BM	-8013
▁kamar	-8014
▁France	-8015
▁sepenuhnya	-8016
▁Rem	-8017
▁ton	-8018
untry	-8019
ovision	-8020
▁menandatangani	-8021
:#	-8022
▁game	-8023
▁Banda	-8024
▁(2009)	-8025
▁Studio	-8026
▁kepentingan	-8027
▁04	-8028
perk	-8029
empah	-8030
organ	-8031
▁Hida	-8032
▁sisa	-8033
▁zona	-8034
endiri	-8035
▁1996.	-8036
▁letak	-8037
▁Madura	-8038
▁nagari	-8039
▁sirkuit	-8040
ane	-8041
icus	-8042
lona	-8043
▁Emp	-8044
upang	-8045
▁1961	-8046
▁Silla	-8047
▁papan	-8048
▁perilaku	-8049
itel	-8050
ubur	-8051
▁Kini	-8052
intesis	-8053
▁sinyal	-8054
▁Lambang	-8055
Qur	-8056
egr	-8057
▁den	-8058
▁hab	-8059
isual	-8060
▁Alban	-8061
▁medan	-8062
▁Banyumas	-8063
▁Parlemen	-8064
▁Prasasti	-8065
▁Ara	-8066
▁Nev	-8067
ingat	-8068
lands	-8069
▁Ivan	-8070
asihat	-8071
romosikan	-8072
▁Sanskerta	-8073
htm	-8074
hadi	-8075
pool	-8076
▁Roh	-8077
▁Tum	-8078
▁Balik	-8079
▁Edisi	-8080
▁didapat	-8081
▁Terminal	-8082
▁semuanya	-8083
cera	-8084
olar	-8085
orth	-8086
esain	-8087
jamin	-8088
▁arke	-8089
▁Rasul	-8090
▁ketujuh	-8091
PSN	-8092
bun	-8093
pin	-8094
ibur	-8095
▁Idol	-8096
▁Bambang	-8097
▁Aja	-8098
rahim	-8099
▁1958	-8100
▁tamu	-8101
▁1995.	-8102
▁Afgan	-8103
▁gugus	-8104
▁halnya	-8105
▁takhta	-8106
▁terminal	-8107
mati	-8108
▁well	-8109
▁Demak	-8110
▁Mycale	-8111
▁Sumbawa	-8112
▁pembunuhan	-8113
iawan	-8114
▁Gajah	-8115
▁Kamen	-8116
▁River	-8117
ekarkan	-8118
▁nelayan	-8119
'.	-8120
anon	-8121
wich	-8122
eknik	-8123
ingkan	-8124
▁Ciamis	-8125
▁riwayat	-8126
▁ditampilkan	-8127
IV	-8128
pit	-8129
enne	-8130
uela	-8131
▁Mot	-8132
▁Jour	-8133
▁Jackson	-8134
▁memakan	-8135
▁pelukis	-8136
▁menetapkan	-8137
odes	-8138
anyar	-8139
inyin	-8140
ichond	-8141
▁meski	-8142
▁suami	-8143
▁Pember	-8144
▁Proyek	-8145
▁Sarana	-8146
▁rangka	-8147
▁Sekitar	-8148
▁Perempuan	-8149
ekh	-8150
reis	-8151
ereng	-8152
▁Kemb	-8153
▁cipta	-8154
spesies	-8155
score	-8156
▁Back	-8157
▁Chen	-8158
72	-8159
jin	-8160
rica	-8161
quare	-8162
▁hadir	-8163
▁regnum	-8164
▁Slow	-8165
▁Bacaan	-8166
▁varian	-8167
ualangan	-8168
well	-8169
▁150	-8170
▁kuil	-8171
▁1994.	-8172
▁Mangk	-8173
▁Sunan	-8174
▁Produksi	-8175
Desa	-8176
oser	-8177
▁kud	-8178
▁NPSN	-8179
▁perak	-8180
▁lukisan	-8181
▁prajurit	-8182
▁wartawan	-8183
▁Keuskupan	-8184
inum	-8185
itri	-8186
▁Riz	-8187
▁sex	-8188
ovasi	-8189
▁Mant	-8190
▁biji	-8191
▁Chall	-8192
▁65	-8193
▁vs	-8194
ader	-8195
ucing	-8196
omulyo	-8197
seperti	-8198
▁dilanjut	-8199
adr	-8200
▁pl	-8201
▁Imp	-8202
presi	-8203
▁Panc	-8204
▁disk	-8205
awatan	-8206
▁kargo	-8207
▁Global	-8208
▁Single	-8209
▁petern	-8210
▁Dub	-8211
▁Pula	-8212
adaban	-8213
▁Maroko	-8214
▁armada	-8215
▁jagung	-8216
▁pelangg	-8217
▁Konstant	-8218
▁festival	-8219
▁penulisan	-8220
oor	-8221
say	-8222
▁il	-8223
odik	-8224
ujui	-8225
▁Raf	-8226
▁Slov	-8227
jasama	-8228
etakkan	-8229
ats	-8230
mus	-8231
isma	-8232
ordan	-8233
sitek	-8234
▁Intel	-8235
▁cairan	-8236
▁penghasil	-8237
▁kepemimpinan	-8238
eva	-8239
irk	-8240
emix	-8241
chaet	-8242
igasi	-8243
▁Sudi	-8244
▁demi	-8245
▁liter	-8246
▁Serang	-8247
TM	-8248
ct	-8249
eds	-8250
ysi	-8251
▁(5	-8252
chsen	-8253
▁segi	-8254
graman	-8255
▁Jones	-8256
inginan	-8257
▁August	-8258
▁pulang	-8259
▁48	-8260
▁Ltd	-8261
▁Line	-8262
ebrata	-8263
▁Klaten	-8264
▁beranggotakan	-8265
tun	-8266
▁6,	-8267
endy	-8268
▁Cot	-8269
▁Lov	-8270
▁bot	-8271
Juara	-8272
akuan	-8273
▁Chang	-8274
▁White	-8275
eskripsi	-8276
▁memenangi	-8277
▁terdaftar	-8278
yai	-8279
▁Kra	-8280
ogiri	-8281
▁county	-8282
▁Acantho	-8283
unting	-8284
▁aster	-8285
▁mulut	-8286
▁pasti	-8287
▁sepur	-8288
jonegoro	-8289
▁ketidak	-8290
▁menempuh	-8291
▁Amsterdam	-8292
arn	-8293
▁Joe	-8294
▁bom	-8295
enalan	-8296
yangan	-8297
▁Nigeria	-8298
▁revolusi	-8299
▁Kemerdekaan	-8300
AH	-8301
▁Ai	-8302
▁ca	-8303
uaca	-8304
▁ibadah	-8305
Nya	-8306
eam	-8307
wab	-8308
▁bon	-8309
ukkan	-8310
▁Team	-8311
etujui	-8312
▁Keter	-8313
▁rambut	-8314
▁menyimpan	-8315
▁Acanthochaet	-8316
▁menggabungkan	-8317
-0	-8318
tani	-8319
tipe	-8320
▁Ach	-8321
▁Hus	-8322
▁hom	-8323
wujud	-8324
▁Mand	-8325
▁Centre	-8326
▁Lembah	-8327
▁Polisi	-8328
▁persen	-8329
▁Highway	-8330
▁Letaknya	-8331
▁Pemimpin	-8332
▁por	-8333
▁Bend	-8334
▁1998,	-8335
▁Hutan	-8336
▁detik	-8337
▁sinar	-8338
▁harfiah	-8339
▁Kolombia	-8340
▁KM	-8341
▁Nug	-8342
▁0.07	-8343
anteri	-8344
arl	-8345
jai	-8346
▁Tua	-8347
▁Bahan	-8348
▁buruk	-8349
▁penjara	-8350
▁Perbatasan	-8351
desk	-8352
perim	-8353
▁1959	-8354
▁diduga	-8355
▁ikatan	-8356
▁Pramuka	-8357
iaan	-8358
etika	-8359
▁Game	-8360
▁(2012)	-8361
▁berbicara	-8362
BI	-8363
ss	-8364
pes	-8365
odadi	-8366
siden	-8367
▁dias	-8368
▁Fried	-8369
▁Letak	-8370
▁Shang	-8371
▁Telef	-8372
▁punya	-8373
▁Eurovision	-8374
ated	-8375
ipan	-8376
▁Blok	-8377
▁peri	-8378
▁kalimat	-8379
▁menyerupai	-8380
▁dilanjutkan	-8381
▁Ron	-8382
antum	-8383
▁Tony	-8384
▁Blang	-8385
▁memer	-8386
▁aturan	-8387
▁wellsi	-8388
▁Cilacap	-8389
udisi	-8390
▁liar	-8391
tinggi	-8392
▁candi	-8393
▁teknis	-8394
▁berawal	-8395
',	-8396
▁Site	-8397
▁Tasi	-8398
daerah	-8399
▁koloni	-8400
▁Belakang	-8401
ardi	-8402
urai	-8403
▁0.05	-8404
▁Staf	-8405
▁tenis	-8406
▁Periode	-8407
BM	-8408
ages	-8409
deskel	-8410
ondang	-8411
▁peman	-8412
▁Komite	-8413
▁Benteng	-8414
▁Element	-8415
▁berlaga	-8416
▁Konstitusi	-8417
▁Ye	-8418
alak	-8419
▁Bot	-8420
▁Fan	-8421
▁pak	-8422
▁Plot	-8423
amboja	-8424
▁Makan	-8425
termasuk	-8426
▁merdeka	-8427
▁Karawang	-8428
yono	-8429
▁Hip	-8430
asangan	-8431
▁bertindak	-8432
etas	-8433
itif	-8434
▁316	-8435
▁Mend	-8436
▁bayi	-8437
▁Malam	-8438
itungan	-8439
▁berbunga	-8440
▁ditangkap	-8441
AURI	-8442
▁AFC	-8443
▁Neg	-8444
▁Yusuf	-8445
▁dikalahkan	-8446
akt	-8447
ving	-8448
▁Cho	-8449
▁but	-8450
▁Mosk	-8451
▁bass	-8452
▁Asian	-8453
identifikasi	-8454
ius	-8455
nif	-8456
zuki	-8457
ative	-8458
▁klan	-8459
ambung	-8460
ebelah	-8461
▁Desain	-8462
zu	-8463
mum	-8464
ness	-8465
▁Juv	-8466
▁Old	-8467
▁mam	-8468
▁Bire	-8469
▁Lady	-8470
▁peta	-8471
▁karet	-8472
maisuri	-8473
▁hukuman	-8474
▁ruangan	-8475
▁terbaru	-8476
▁Kepolisian	-8477
▁pendapatan	-8478
▁~	-8479
▁PC	-8480
emuk	-8481
▁Cak	-8482
▁Pep	-8483
▁Chin	-8484
abatan	-8485
trumen	-8486
▁Racing	-8487
▁cender	-8488
IP	-8489
▁MP	-8490
aron	-8491
oney	-8492
▁Cin	-8493
AURIF	-8494
amily	-8495
▁minim	-8496
▁jantan	-8497
▁Pertengahan	-8498
▁SS	-8499
▁Anat	-8500
▁Lemb	-8501
▁RCTI	-8502
▁Story	-8503
▁abjad	-8504
▁saraf	-8505
600	-8506
cial	-8507
inah	-8508
ming	-8509
▁Dum	-8510
▁Tre	-8511
endam	-8512
▁Eliz	-8513
▁Hand	-8514
▁dana	-8515
▁Garut	-8516
▁Usaha	-8517
alungun	-8518
▁parasit	-8519
▁melarikan	-8520
▁183	-8521
▁let	-8522
vania	-8523
▁1949	-8524
▁Bursa	-8525
▁membu	-8526
▁sport	-8527
bintang	-8528
▁Arthur	-8529
▁Bahkan	-8530
▁Kapuas	-8531
▁Bireuen	-8532
▁Florida	-8533
▁Belitung	-8534
▁McC	-8535
yakini	-8536
▁berapi	-8537
▁Mandailing	-8538
elasan	-8539
▁dituturkan	-8540
▁saudaranya	-8541
jol	-8542
kes	-8543
lora	-8544
isang	-8545
▁Pres	-8546
▁menutup	-8547
odifikasi	-8548
▁Panglima	-8549
▁konstruksi	-8550
▁Rt	-8551
hard	-8552
onel	-8553
▁tok	-8554
bayar	-8555
yclop	-8556
▁Conc	-8557
▁Gamb	-8558
▁Rain	-8559
ayakan	-8560
▁Dolok	-8561
▁Mulai	-8562
▁Ponti	-8563
▁https	-8564
▁menju	-8565
▁terang	-8566
▁laporan	-8567
▁terjual	-8568
▁Williams	-8569
▁dipinjamkan	-8570
yes	-8571
jati	-8572
yaran	-8573
▁Bidang	-8574
▁Brebes	-8575
▁Person	-8576
▁Layanan	-8577
CD	-8578
ín	-8579
alek	-8580
ahami	-8581
edral	-8582
▁1946	-8583
▁bung	-8584
▁comp	-8585
▁otak	-8586
▁Singk	-8587
▁Public	-8588
▁Square	-8589
▁Holland	-8590
▁pelatihan	-8591
Si	-8592
▁CF	-8593
▁Bud	-8594
▁penyimp	-8595
▁Atlantik	-8596
▁perayaan	-8597
▁Simalungun	-8598
▁pergerakan	-8599
otik	-8600
pedisi	-8601
▁Lebih	-8602
▁Liver	-8603
▁gugur	-8604
▁wajah	-8605
▁pangkat	-8606
▁karyawan	-8607
▁Hawai	-8608
▁Tower	-8609
▁fokus	-8610
▁dimakan	-8611
▁dibatasi	-8612
▁punggung	-8613
-14	-8614
utt	-8615
▁kut	-8616
▁Last	-8617
▁Mandar	-8618
▁menyeb	-8619
▁material	-8620
▁Om	-8621
▁Rp	-8622
▁Fax	-8623
▁Scott	-8624
▁virus	-8625
▁Teater	-8626
adaptasi	-8627
▁sejarawan	-8628
91	-8629
-11	-8630
iao	-8631
ohol	-8632
▁Ret	-8633
▁kej	-8634
▁Gard	-8635
▁Over	-8636
▁list	-8637
▁genre	-8638
▁personel	-8639
▁penggabungan	-8640
}}	-8641
ule	-8642
▁AD	-8643
erry	-8644
▁Hur	-8645
ambat	-8646
iller	-8647
▁Hard	-8648
▁Kamer	-8649
▁Stock	-8650
▁dikar	-8651
▁Oxford	-8652
▁prasasti	-8653
AP	-8654
▁Kala	-8655
▁simp	-8656
Di	-8657
▁fon	-8658
evich	-8659
inyur	-8660
▁Bugis	-8661
▁enzim	-8662
▁halus	-8663
▁kanton	-8664
▁bermula	-8665
▁Kedokteran	-8666
▁memperkenalkan	-8667
Bab	-8668
batu	-8669
iago	-8670
ampur	-8671
▁1948	-8672
▁1955	-8673
▁Mike	-8674
raltar	-8675
▁(2006	-8676
▁Halic	-8677
▁Mekar	-8678
▁medis	-8679
▁pajak	-8680
▁(2011)	-8681
▁karang	-8682
▁dikuasai	-8683
gon	-8684
▁Ged	-8685
untut	-8686
▁Bara	-8687
▁Bund	-8688
▁cucu	-8689
▁Kongo	-8690
▁Saudara	-8691
▁Islandia	-8692
▁Elizabeth	-8693
▁presenter	-8694
▁dimekarkan	-8695
81	-8696
syah	-8697
▁Taw	-8698
incin	-8699
▁Wood	-8700
bankan	-8701
ayat	-8702
indo	-8703
▁Cre	-8704
esian	-8705
▁Sosi	-8706
▁pacu	-8707
wilayah	-8708
▁(2000)	-8709
▁Basket	-8710
▁Bojong	-8711
▁patung	-8712
▁Sidoarjo	-8713
cho	-8714
ovo	-8715
▁44	-8716
▁0.04	-8717
▁Fernando	-8718
▁Tapanuli	-8719
rict	-8720
▁mau	-8721
yanmar	-8722
▁Puncak	-8723
▁Slowakia	-8724
▁dilantik	-8725
▁diplomat	-8726
▁Terjemahan	-8727
▁mengumpulkan	-8728
tod	-8729
town	-8730
antar	-8731
▁Cour	-8732
▁otot	-8733
▁intel	-8734
▁Ibrahim	-8735
▁Stephen	-8736
▁Batalyon	-8737
▁berkisar	-8738
▁pengarang	-8739
ID	-8740
ium	-8741
elai	-8742
.2010	-8743
raham	-8744
▁Tapi	-8745
▁Pener	-8746
▁about	-8747
▁tertulis	-8748
▁cenderung	-8749
dwal	-8750
tadt	-8751
▁Sop	-8752
▁pra	-8753
▁Desi	-8754
▁Sound	-8755
▁helik	-8756
▁dagang	-8757
▁Afganistan	-8758
▁pemrograman	-8759
bk	-8760
gie	-8761
▁XV	-8762
▁wa	-8763
anggar	-8764
orough	-8765
▁Spesi	-8766
▁Indian	-8767
▁Albania	-8768
▁VIII	-8769
cobaan	-8770
▁hadiah	-8771
entangan	-8772
▁pendirian	-8773
impi	-8774
▁Rid	-8775
▁Taj	-8776
oyang	-8777
▁(1998)	-8778
▁Modern	-8779
▁Remaja	-8780
▁dijalan	-8781
▁melebih	-8782
▁seiring	-8783
▁kesenian	-8784
▁Municipal	-8785
len	-8786
helm	-8787
here	-8788
▁gua	-8789
▁Wang	-8790
▁Labuhan	-8791
▁frekuensi	-8792
fr	-8793
▁MTV	-8794
▁Teb	-8795
▁Alan	-8796
▁Huruf	-8797
▁Salam	-8798
▁bakat	-8799
▁meluncurkan	-8800
▁Ug	-8801
elia	-8802
album	-8803
ticle	-8804
ukitan	-8805
▁horor	-8806
▁Callys	-8807
▁Manado	-8808
▁kamera	-8809
▁Beijing	-8810
▁Telefon	-8811
▁Deskripsi	-8812
▁bersekolah	-8813
ign	-8814
rim	-8815
▁75	-8816
ijen	-8817
▁mor	-8818
ptasi	-8819
▁Post	-8820
▁hits	-8821
▁Chart	-8822
▁diman	-8823
aliknya	-8824
▁kanker	-8825
▁Jurusan	-8826
▁Tumbuhan	-8827
▁kejahatan	-8828
▁perumahan	-8829
▁Bojonegoro	-8830
kon	-8831
lar	-8832
rut	-8833
▁AM	-8834
edar	-8835
ektorat	-8836
▁Bangun	-8837
▁Pinang	-8838
▁elemen	-8839
▁Warisan	-8840
▁kandung	-8841
▁bukanlah	-8842
▁pengikut	-8843
▁terhubung	-8844
▁kebangsaan	-8845
▁52	-8846
anth	-8847
lasi	-8848
upuk	-8849
askan	-8850
▁1000	-8851
▁Home	-8852
▁Kenn	-8853
▁Nilai	-8854
▁Akibat	-8855
▁Komando	-8856
▁berdekatan	-8857
ovi	-8858
ants	-8859
▁DNA	-8860
▁Vla	-8861
▁Indi	-8862
rofesi	-8863
inginkan	-8864
▁Mongolia	-8865
▁panggilan	-8866
▁51	-8867
arch	-8868
inja	-8869
oner	-8870
▁Bow	-8871
▁Kah	-8872
▁taj	-8873
eleng	-8874
▁Ryan	-8875
▁spir	-8876
Instit	-8877
▁markas	-8878
▁Lebak	-8879
urangan	-8880
▁Akhirnya	-8881
▁Hidangan	-8882
▁diartikan	-8883
▁perbukitan	-8884
▁BT	-8885
▁er	-8886
akna	-8887
▁Luw	-8888
▁Thi	-8889
▁1957	-8890
▁Wars	-8891
▁2014,	-8892
▁cocok	-8893
adangan	-8894
▁(1999)	-8895
▁betina	-8896
▁gangguan	-8897
GM	-8898
▁ten	-8899
▁kain	-8900
▁1990,	-8901
▁tulis	-8902
▁Penulis	-8903
▁Gibraltar	-8904
▁Oh	-8905
ESCO	-8906
aduk	-8907
uber	-8908
udak	-8909
▁Prim	-8910
▁piano	-8911
▁Lumpur	-8912
▁Terbuka	-8913
▁mencegah	-8914
▁restoran	-8915
▁bersenjata	-8916
▁Sad	-8917
▁0.08	-8918
▁Sakti	-8919
▁Dingin	-8920
▁historis	-8921
▁politisi	-8922
Purn	-8923
lama	-8924
▁Itu	-8925
harata	-8926
▁Panas	-8927
▁Queens	-8928
▁tayang	-8929
▁Myanmar	-8930
▁diyakini	-8931
▁melebihi	-8932
▁Pangkalan	-8933
▁Television	-8934
bud	-8935
▁Hart	-8936
▁nada	-8937
▁poin	-8938
apahit	-8939
▁Steve	-8940
arapkan	-8941
▁Kampar	-8942
▁terkecil	-8943
▁koordinat	-8944
▁mengakhiri	-8945
alas	-8946
crip	-8947
▁Ern	-8948
▁Syah	-8949
▁Ngawi	-8950
▁dikon	-8951
▁sulung	-8952
esidenan	-8953
▁Tradisi	-8954
▁penggemar	-8955
▁peringatan	-8956
SD	-8957
-21	-8958
Don	-8959
dpl	-8960
akau	-8961
etus	-8962
▁boleh	-8963
▁Potter	-8964
▁Kondisi	-8965
▁koleksi	-8966
▁Makedonia	-8967
▁ditambahkan	-8968
estor	-8969
▁Laur	-8970
▁Organ	-8971
▁turunan	-8972
▁menyanyi	-8973
yd	-8974
▁KK	-8975
▁Keg	-8976
▁Gall	-8977
▁institusi	-8978
:00	-8979
Pro	-8980
eki	-8981
▁Get	-8982
▁Agus	-8983
▁Phil	-8984
▁ular	-8985
▁konstitusi	-8986
▁KA	-8987
ophy	-8988
vina	-8989
▁Amp	-8990
shire	-8991
▁Slam	-8992
▁UNESCO	-8993
▁pangan	-8994
▁Ferrari	-8995
opo	-8996
▁NE	-8997
-198	-8998
ally	-8999
plor	-9000
suku	-9001
ajikan	-9002
▁Found	-9003
▁kedalam	-9004
▁Venezuela	-9005
▁kehormatan	-9006
Or	-9007
eddy	-9008
eling	-9009
papan	-9010
wajib	-9011
▁1956	-9012
▁Shan	-9013
▁Citra	-9014
▁Kevin	-9015
▁scope	-9016
▁banjir	-9017
▁berturut	-9018
▁kesatuan	-9019
ST	-9020
ipa	-9021
pak	-9022
▁DC	-9023
▁aktivis	-9024
▁Liverpool	-9025
▁diturunkan	-9026
▁kekaisaran	-9027
▁Konfederasi	-9028
▁menyanyikan	-9029
▁menghancurkan	-9030
osil	-9031
▁Rek	-9032
akaman	-9033
▁Gener	-9034
apasitas	-9035
elamatkan	-9036
▁Virginia	-9037
▁kerusakan	-9038
▁pemikiran	-9039
▁pendatang	-9040
▁Aq	-9041
▁PL	-9042
engka	-9043
▁Cont	-9044
▁Merc	-9045
▁Nick	-9046
isaris	-9047
▁1992.	-9048
▁uskup	-9049
▁Tangga	-9050
▁materi	-9051
▁bertambah	-9052
▁lingkaran	-9053
▁helikopter	-9054
▁permintaan	-9055
kel	-9056
▁SA	-9057
▁Dil	-9058
▁Yan	-9059
borasi	-9060
ugaskan	-9061
▁Science	-9062
▁dimensi	-9063
▁Pekanbaru	-9064
▁Pontianak	-9065
▁berprofesi	-9066
dih	-9067
ners	-9068
lukkan	-9069
▁tebal	-9070
▁kedudukan	-9071
3),	-9072
aso	-9073
pha	-9074
tung	-9075
upan	-9076
▁laga	-9077
▁kontro	-9078
▁perwakilan	-9079
▁Are	-9080
▁Maya	-9081
egrasi	-9082
▁Hakim	-9083
▁Lanka	-9084
▁Career	-9085
▁online	-9086
▁internal	-9087
▁pariwisata	-9088
ör	-9089
kem	-9090
vat	-9091
▁54	-9092
▁55	-9093
▁57	-9094
orogo	-9095
▁Lamongan	-9096
▁teritori	-9097
▁peperangan	-9098
▁tersendiri	-9099
▁pelaksanaan	-9100
eur	-9101
▁Batt	-9102
▁Duta	-9103
▁Julian	-9104
▁mengisi	-9105
br	-9106
4),	-9107
ipe	-9108
▁46	-9109
▁Aqu	-9110
▁Log	-9111
▁Rap	-9112
alkan	-9113
▁star	-9114
▁Fungsi	-9115
▁disajikan	-9116
▁mendorong	-9117
▁41	-9118
akta	-9119
▁org	-9120
ormon	-9121
▁Koda	-9122
▁multi	-9123
▁tidur	-9124
▁Utsmaniyah	-9125
▁penjajahan	-9126
▁perlindungan	-9127
ars	-9128
▁49	-9129
▁(17	-9130
▁Sav	-9131
odend	-9132
▁Ibunya	-9133
▁pemilu	-9134
▁Seluruh	-9135
▁ibukota	-9136
▁Hubungan	-9137
▁definisi	-9138
▁mengenal	-9139
▁dianugerahi	-9140
owi	-9141
▁Et	-9142
abet	-9143
▁Nah	-9144
▁Rio	-9145
▁jen	-9146
intai	-9147
Bandar	-9148
▁Teori	-9149
▁paman	-9150
▁(2014)	-9151
▁Online	-9152
▁sambil	-9153
angkatan	-9154
▁kelamin	-9155
▁mineral	-9156
▁teologi	-9157
▁variasi	-9158
▁Aviation	-9159
▁disimpan	-9160
▁perekonomian	-9161
nus	-9162
▁Sha	-9163
tokoh	-9164
▁Gand	-9165
▁Siti	-9166
▁Makam	-9167
▁kakek	-9168
▁Juvent	-9169
▁cantik	-9170
▁normal	-9171
▁Kamboja	-9172
▁naungan	-9173
istribusi	-9174
▁Majapahit	-9175
▁berposisi	-9176
▁mengelola	-9177
▁pesantren	-9178
▁mengunjungi	-9179
▁Gog	-9180
▁Kasi	-9181
▁Zona	-9182
▁Depok	-9183
▁rekan	-9184
▁itulah	-9185
tanegara	-9186
▁memeluk	-9187
▁mendarat	-9188
ekomunikasi	-9189
▁UU	-9190
▁().	-9191
▁Hit	-9192
▁ban	-9193
igran	-9194
▁Mach	-9195
▁Socc	-9196
▁dijumpai	-9197
CC	-9198
5),	-9199
roc	-9200
▁Xi	-9201
eaux	-9202
▁Sag	-9203
▁lab	-9204
▁park	-9205
atukan	-9206
▁1997,	-9207
epaskan	-9208
▁Alfred	-9209
▁Komunis	-9210
▁asisten	-9211
▁memanfaatkan	-9212
▁53	-9213
ople	-9214
inisi	-9215
▁....	-9216
▁1919	-9217
▁Jose	-9218
▁Trin	-9219
▁terj	-9220
linois	-9221
▁biara	-9222
uncuran	-9223
fn	-9224
▁×	-9225
pol	-9226
▁Arn	-9227
▁fir	-9228
▁2021,	-9229
▁Oblast	-9230
▁stabil	-9231
▁situasi	-9232
▁Sutradara	-9233
▁dikarunia	-9234
▁jabatannya	-9235
gue	-9236
sam	-9237
ific	-9238
▁1954	-9239
▁Mega	-9240
▁Domin	-9241
▁balik	-9242
migrasi	-9243
▁teratas	-9244
▁Pahlawan	-9245
▁menjuarai	-9246
▁pengertian	-9247
▁Transfermarkt	-9248
gag	-9249
▁84	-9250
ciri	-9251
mata	-9252
ikanan	-9253
▁Libya	-9254
▁Pengg	-9255
▁Taurat	-9256
▁Abraham	-9257
▁terdekat	-9258
▁berkapasitas	-9259
▁direncanakan	-9260
xt	-9261
-13	-9262
▁8,	-9263
ajib	-9264
▁Got	-9265
▁Muk	-9266
▁Rol	-9267
earch	-9268
▁Cruz	-9269
▁Peran	-9270
▁tengg	-9271
▁gerbang	-9272
▁menandai	-9273
▁tahunnya	-9274
▁distribusi	-9275
–2	-9276
7),	-9277
vey	-9278
▁Mün	-9279
emaat	-9280
▁Temb	-9281
ingati	-9282
▁Kebun	-9283
▁idola	-9284
▁siapa	-9285
▁tertarik	-9286
▁pendudukan	-9287
▁Pengembangan	-9288
RA	-9289
andy	-9290
▁NBA	-9291
elson	-9292
vcard	-9293
ebihan	-9294
olahan	-9295
▁Kazakh	-9296
▁berpen	-9297
▁Temanggung	-9298
ecah	-9299
▁Leo	-9300
oskop	-9301
▁Kabu	-9302
atanya	-9303
▁1950-	-9304
▁sengaja	-9305
▁Kuningan	-9306
▁kampanye	-9307
▁lanjutan	-9308
▁menambahkan	-9309
uts	-9310
zia	-9311
emik	-9312
laut	-9313
▁Cry	-9314
▁1993.	-9315
▁Beach	-9316
▁Davis	-9317
▁Suara	-9318
▁Kapten	-9319
▁Haliclona	-9320
▁bergantung	-9321
▁(6	-9322
ongo	-9323
orak	-9324
istry	-9325
▁Bone	-9326
avorit	-9327
atipula	-9328
▁lubang	-9329
▁Limited	-9330
▁Kompetisi	-9331
▁banyaknya	-9332
▁dimaksudkan	-9333
▁Administratif	-9334
dap	-9335
nak	-9336
tre	-9337
▁AB	-9338
/200	-9339
ther	-9340
▁(1)	-9341
▁bub	-9342
track	-9343
▁1900	-9344
▁Agam	-9345
▁Brad	-9346
ederal	-9347
▁subur	-9348
▁(2013)	-9349
▁Konsep	-9350
ingginya	-9351
▁rahasia	-9352
▁Illinois	-9353
▁Cambridge	-9354
Hol	-9355
erai	-9356
saan	-9357
▁rap	-9358
▁(1):	-9359
▁Advent	-9360
▁berkat	-9361
▁Hollywood	-9362
▁Elementary	-9363
dasi	-9364
etts	-9365
▁Row	-9366
opher	-9367
enggam	-9368
entuan	-9369
▁Mulia	-9370
▁lereng	-9371
▁Kamerun	-9372
▁Wonosobo	-9373
▁pangeran	-9374
▁Kurikulum	-9375
EM	-9376
akm	-9377
dad	-9378
asem	-9379
▁Him	-9380
▁Kru	-9381
▁Wei	-9382
opeza	-9383
▁Paku	-9384
▁Space	-9385
▁mundur	-9386
▁penari	-9387
▁rumput	-9388
▁derajat	-9389
▁Perjalanan	-9390
gor	-9391
onc	-9392
unas	-9393
▁Gan	-9394
▁Lud	-9395
harjo	-9396
▁Chad	-9397
▁Conn	-9398
▁tapi	-9399
asakan	-9400
ference	-9401
▁Balikpapan	-9402
▁*	-9403
kec	-9404
▁PD	-9405
▁Hok	-9406
karya	-9407
tural	-9408
▁Arts	-9409
▁Buah	-9410
▁dira	-9411
▁Aktor	-9412
uksesan	-9413
▁Memori	-9414
▁miskin	-9415
▁Jombang	-9416
▁Mohammad	-9417
▁penerima	-9418
▁kombinasi	-9419
▁Demokratik	-9420
cl	-9421
dro	-9422
ujung	-9423
▁baja	-9424
▁kebi	-9425
barang	-9426
▁Force	-9427
▁punah	-9428
▁Andrew	-9429
▁akting	-9430
KT	-9431
ete	-9432
hin	-9433
och	-9434
▁ki	-9435
▁Jag	-9436
▁cap	-9437
▁kue	-9438
▁Bert	-9439
▁Moon	-9440
▁real	-9441
status	-9442
unisia	-9443
▁jurnal	-9444
▁menekan	-9445
▁bermesin	-9446
▁Billboard	-9447
▁berlanjut	-9448
▁•	-9449
dit	-9450
oryx	-9451
▁(16	-9452
▁Aga	-9453
▁Ayu	-9454
▁KRI	-9455
▁Pab	-9456
uktikan	-9457
▁pejuang	-9458
inspirasi	-9459
▁fenomena	-9460
▁Ju	-9461
onso	-9462
▁pokok	-9463
untansi	-9464
▁Hawaii	-9465
▁dipegang	-9466
imo	-9467
rav	-9468
ère	-9469
▁Oc	-9470
odor	-9471
▁Emas	-9472
▁Hend	-9473
▁Walt	-9474
▁guna	-9475
▁jari	-9476
▁Child	-9477
▁Yaman	-9478
▁cuaca	-9479
▁bawang	-9480
▁doktor	-9481
▁prestasi	-9482
Sa	-9483
▁64	-9484
▁CN	-9485
adat	-9486
hein	-9487
kini	-9488
abumi	-9489
ambut	-9490
▁Pidie	-9491
panjang	-9492
▁sekuel	-9493
Le	-9494
besar	-9495
ovich	-9496
▁Berg	-9497
▁Harv	-9498
▁This	-9499
amping	-9500
usatsu	-9501
▁Skuat	-9502
Inggris	-9503
ussalam	-9504
usulkan	-9505
▁(1996)	-9506
▁Pierre	-9507
▁berpeng	-9508
▁Komering	-9509
▁Wonogiri	-9510
bro	-9511
rog	-9512
otos	-9513
urch	-9514
▁Meg	-9515
▁3166	-9516
▁Kant	-9517
▁Whit	-9518
▁Robin	-9519
▁States	-9520
▁Makanan	-9521
▁semacam	-9522
▁Pasuruan	-9523
▁Sukoharjo	-9524
als	-9525
enn	-9526
▁05	-9527
mara	-9528
▁(2)	-9529
empor	-9530
filman	-9531
pongia	-9532
▁Sudan	-9533
▁curah	-9534
intasan	-9535
▁Player	-9536
▁evolusi	-9537
▁Juventus	-9538
▁Komandan	-9539
▁seluruhnya	-9540
▁%	-9541
hio	-9542
ulo	-9543
▁PP	-9544
ston	-9545
▁pek	-9546
▁Anas	-9547
▁Kend	-9548
▁Wong	-9549
▁Light	-9550
islatif	-9551
▁Ismail	-9552
▁Kendal	-9553
▁habitat	-9554
▁leluhur	-9555
▁Jaringan	-9556
▁menghind	-9557
▁putranya	-9558
▁tertutup	-9559
▁didefinisikan	-9560
gih	-9561
▁180	-9562
▁Ars	-9563
▁Cop	-9564
▁pant	-9565
▁Portal	-9566
▁mendek	-9567
▁dibantu	-9568
ertebrata	-9569
▁Johannes	-9570
▁bersaing	-9571
▁tubuhnya	-9572
▁dikaruniai	-9573
”.	-9574
dua	-9575
enz	-9576
pis	-9577
luan	-9578
mund	-9579
itter	-9580
▁Kadi	-9581
▁Marie	-9582
▁Blitar	-9583
▁Digital	-9584
▁bermakna	-9585
▁mendiami	-9586
cipt	-9587
ukar	-9588
▁bal	-9589
▁siap	-9590
uburan	-9591
trocera	-9592
▁berhak	-9593
Bel	-9594
Man	-9595
▁SU	-9596
ihir	-9597
udal	-9598
▁Use	-9599
eglang	-9600
hattan	-9601
▁Ambon	-9602
▁Harris	-9603
▁musikal	-9604
▁Bactrocera	-9605
▁menyebutnya	-9606
yer	-9607
awit	-9608
▁pran	-9609
▁spek	-9610
mosfer	-9611
▁Bekas	-9612
▁ekstr	-9613
▁berkel	-9614
▁Cipinang	-9615
▁menentang	-9616
▁menunjang	-9617
▁memasukkan	-9618
iji	-9619
wer	-9620
edes	-9621
eher	-9622
▁120	-9623
endek	-9624
▁(192	-9625
▁Soeh	-9626
enburg	-9627
▁Pedro	-9628
▁pilot	-9629
otongan	-9630
▁efektif	-9631
▁federal	-9632
▁lisensi	-9633
▁subspesies	-9634
,"	-9635
▁MA	-9636
UHAN	-9637
amar	-9638
heed	-9639
mana	-9640
onik	-9641
▁Bru	-9642
▁Tat	-9643
▁Laks	-9644
▁Guide	-9645
▁sejauh	-9646
▁Express	-9647
▁Sirkuit	-9648
▁direkam	-9649
▁Research	-9650
▁Slovenia	-9651
▁47	-9652
enta	-9653
reen	-9654
encia	-9655
todoks	-9656
▁Paruh	-9657
▁ritual	-9658
▁setara	-9659
edudukan	-9660
▁dipisahkan	-9661
▁dimenangkan	-9662
▁memengaruhi	-9663
▁pemandangan	-9664
meng	-9665
misi	-9666
▁1990.	-9667
▁penyebab	-9668
▁Pandeglang	-9669
▁Penelitian	-9670
▁pengadilan	-9671
▁Aji	-9672
▁Sho	-9673
▁kre	-9674
▁atlet	-9675
chusetts	-9676
▁dasarnya	-9677
▁terjemahan	-9678
cky	-9679
▁43	-9680
▁Cle	-9681
irejo	-9682
▁0.03	-9683
▁Lake	-9684
andria	-9685
▁Bibli	-9686
▁Iskan	-9687
▁Resensi	-9688
▁Generasi	-9689
▁diadaptasi	-9690
▁pengunjung	-9691
ña	-9692
tri	-9693
lace	-9694
▁Lot	-9695
purna	-9696
▁List	-9697
▁Tong	-9698
▁agen	-9699
elihara	-9700
▁Petrus	-9701
▁Sayang	-9702
▁Service	-9703
▁penutur	-9704
▁Business	-9705
▁Ibtidaiyah	-9706
kap	-9707
sist	-9708
utus	-9709
▁Andi	-9710
▁Teng	-9711
▁atap	-9712
alamat	-9713
ragiri	-9714
▁Pesta	-9715
▁Standar	-9716
▁bermata	-9717
▁kekayaan	-9718
▁dibedakan	-9719
▁dihubungkan	-9720
▁DJ	-9721
diam	-9722
askar	-9723
▁baku	-9724
astian	-9725
emeente	-9726
kmalaya	-9727
▁Encyclop	-9728
▁diterapkan	-9729
▁kedatangan	-9730
▁fe	-9731
omon	-9732
▁Peg	-9733
▁Sug	-9734
▁sit	-9735
▁Trek	-9736
episode	-9737
▁infeksi	-9738
▁mengaku	-9739
Semifinal	-9740
▁seberang	-9741
▁mengirimkan	-9742
KA	-9743
Lun	-9744
apus	-9745
ilin	-9746
▁182	-9747
athan	-9748
▁Bach	-9749
▁Copa	-9750
▁Efek	-9751
▁Maha	-9752
▁Episode	-9753
▁bencana	-9754
▁kontrol	-9755
3).	-9756
adak	-9757
idin	-9758
▁250	-9759
olali	-9760
▁1947	-9761
▁Letnan	-9762
waringin	-9763
▁skenario	-9764
GP	-9765
▁(8	-9766
adal	-9767
émon	-9768
▁Pec	-9769
inggo	-9770
▁Spec	-9771
▁dibu	-9772
duseri	-9773
ianjur	-9774
▁kunci	-9775
▁arsitek	-9776
▁membagi	-9777
▁Broadcast	-9778
▁Manhattan	-9779
▁(9	-9780
idon	-9781
▁Dun	-9782
inger	-9783
mouth	-9784
▁blok	-9785
untung	-9786
▁Wilhelm	-9787
▁anggotanya	-9788
loc	-9789
wen	-9790
▁MT	-9791
eton	-9792
zhou	-9793
▁dipen	-9794
angsari	-9795
▁membahas	-9796
▁identitas	-9797
yung	-9798
▁Tas	-9799
▁jer	-9800
▁Lord	-9801
ilikan	-9802
▁2015,	-9803
▁nyata	-9804
▁Guinea	-9805
▁kosong	-9806
tidaknya	-9807
▁strategi	-9808
▁wisatawan	-9809
▁keuntungan	-9810
▁Massachusetts	-9811
▁56	-9812
▁IN	-9813
upsi	-9814
▁Gua	-9815
▁Sai	-9816
▁fac	-9817
illes	-9818
▁1942	-9819
▁Beda	-9820
▁dewi	-9821
▁izin	-9822
▁1989.	-9823
▁perahu	-9824
▁Pesisir	-9825
inis	-9826
sili	-9827
uard	-9828
▁fan	-9829
ebook	-9830
▁Marg	-9831
▁Dinas	-9832
▁Perubahan	-9833
▁dimanfaatkan	-9834
CAO	-9835
deb	-9836
▁CE	-9837
akao	-9838
▁1952	-9839
▁Angola	-9840
▁Sensus	-9841
▁mengemb	-9842
▁Mojokerto	-9843
▁berstatus	-9844
▁mengklaim	-9845
emon	-9846
usir	-9847
▁Sra	-9848
alisis	-9849
ihatan	-9850
▁Kasih	-9851
gantian	-9852
▁negatif	-9853
▁SL	-9854
▁Tj	-9855
aker	-9856
amba	-9857
arag	-9858
▁Wol	-9859
night	-9860
▁Prot	-9861
▁1991.	-9862
▁alias	-9863
▁rantai	-9864
▁Premier	-9865
▁Kegiatan	-9866
▁Universe	-9867
evo	-9868
▁Daun	-9869
▁Syam	-9870
▁Chels	-9871
▁Perak	-9872
akmuran	-9873
▁domain	-9874
▁gagasan	-9875
▁maksimum	-9876
▁Indragiri	-9877
▁Sepanjang	-9878
▁Tasikmalaya	-9879
▁Karakteristik	-9880
erra	-9881
roup	-9882
ugos	-9883
▁pal	-9884
ancar	-9885
▁Side	-9886
▁Water	-9887
▁lampu	-9888
▁Sehingga	-9889
":	-9890
abe	-9891
var	-9892
bury	-9893
ency	-9894
mary	-9895
▁Wel	-9896
▁emp	-9897
▁pew	-9898
esaan	-9899
▁Fair	-9900
▁Kayu	-9901
▁Laki	-9902
lasemen	-9903
▁(1997)	-9904
▁ekonom	-9905
▁Publish	-9906
▁Penguasa	-9907
▁Planning	-9908
▁fakultas	-9909
▁Arsitektur	-9910
▁terpenting	-9911
FI	-9912
mes	-9913
akum	-9914
▁Gas	-9915
▁rec	-9916
▁Hein	-9917
▁Jiwa	-9918
▁Nasi	-9919
▁Freder	-9920
anjangan	-9921
▁menunjuk	-9922
6;"	-9923
gaz	-9924
uge	-9925
masa	-9926
tawa	-9927
uary	-9928
barat	-9929
jenis	-9930
▁Java	-9931
▁Panda	-9932
erankan	-9933
▁terkena	-9934
IT	-9935
hof	-9936
isisi	-9937
▁riset	-9938
olution	-9939
▁Santiago	-9940
Ac	-9941
udin	-9942
ulya	-9943
▁APG	-9944
▁Dri	-9945
▁Geo	-9946
▁Ira	-9947
▁Pho	-9948
▁Adat	-9949
▁kong	-9950
▁Brian	-9951
▁Sukabumi	-9952
▁pengelolaan	-9953
kie	-9954
sem	-9955
sum	-9956
ebus	-9957
ulata	-9958
▁Bani	-9959
▁Mahab	-9960
ampungan	-9961
ubernuran	-9962
▁instrumen	-9963
▁memanjang	-9964
▁Dek	-9965
▁boy	-9966
▁Dian	-9967
iarkan	-9968
▁Darul	-9969
▁Lewis	-9970
▁anggur	-9971
▁konteks	-9972
▁berkedudukan	-9973
gy	-9974
▁IATA	-9975
▁Kast	-9976
imbing	-9977
ucapan	-9978
▁roket	-9979
embahan	-9980
▁Boyolali	-9981
▁Binapemdes	-9982
▁59	-9983
▁Yi	-9984
▁Berm	-9985
▁Russ	-9986
▁medi	-9987
▁Chelsea	-9988
▁geografi	-9989
Lunatipula	-9990
▁tokusatsu	-9991
▁penyimpanan	-9992
SC	-9993
800	-9994
gic	-9995
apur	-9996
awin	-9997
esid	-9998
pore	-9999
urasi	-10000
▁kaca	-10001
▁prop	-10002
▁Polri	-10003
▁(1995)	-10004
▁Kelapa	-10005
▁religi	-10006
▁signif	-10007
▁tepung	-10008
▁diawali	-10009
ublikasikan	-10010
sun	-10011
▁His	-10012
ajuan	-10013
▁kese	-10014
alifah	-10015
▁March	-10016
▁Bosnia	-10017
▁Malaka	-10018
▁transi	-10019
▁Patrick	-10020
▁Ponorogo	-10021
ben	-10022
faat	-10023
▁Arch	-10024
▁Zain	-10025
adanya	-10026
▁1996,	-10027
▁Leste	-10028
alisasi	-10029
owongan	-10030
▁Pandan	-10031
▁Rantau	-10032
▁syarat	-10033
▁Johnson	-10034
▁dikaitkan	-10035
EL	-10036
▁Pir	-10037
▁Yas	-10038
anger	-10039
gitar	-10040
oides	-10041
uncil	-10042
▁Kita	-10043
▁Pulo	-10044
▁Vill	-10045
▁aman	-10046
yboard	-10047
▁Earth	-10048
▁tarik	-10049
ekuatan	-10050
▁Culture	-10051
▁Lebanon	-10052
▁setidaknya	-10053
Se	-10054
–18	-10055
agne	-10056
furt	-10057
▁181	-10058
▁1953	-10059
▁Baby	-10060
▁Lamb	-10061
▁That	-10062
▁Hewan	-10063
▁Johan	-10064
▁Route	-10065
▁Posisi	-10066
▁Wilson	-10067
▁apapun	-10068
▁memerlukan	-10069
▁Gum	-10070
▁Sev	-10071
▁Tbk	-10072
▁Tob	-10073
andal	-10074
▁rupa	-10075
▁2016,	-10076
▁Kerja	-10077
▁dosen	-10078
bubarkan	-10079
▁hektare	-10080
▁monarki	-10081
▁keperluan	-10082
igo	-10083
jaga	-10084
▁Bed	-10085
▁Ful	-10086
▁Teg	-10087
▁dpl	-10088
▁Plaza	-10089
▁genggam	-10090
▁misteri	-10091
▁investasi	-10092
▁kecantikan	-10093
zio	-10094
▁SV	-10095
atio	-10096
lock	-10097
ores	-10098
▁0.09	-10099
▁Aman	-10100
▁Salv	-10101
angkit	-10102
▁selam	-10103
▁Steven	-10104
▁apakah	-10105
▁platform	-10106
rastruktur	-10107
▁peradaban	-10108
▁pap	-10109
onsel	-10110
utasi	-10111
▁2022	-10112
▁Neph	-10113
▁Pern	-10114
▁Rump	-10115
oditas	-10116
▁Sawah	-10117
▁modal	-10118
ebaskan	-10119
▁Willem	-10120
▁selamat	-10121
▁Michelin	-10122
▁terlebih	-10123
▁Hymedesmia	-10124
PU	-10125
xy	-10126
–199	-10127
▁Lev	-10128
▁Nip	-10129
▁Trip	-10130
▁pesat	-10131
▁muslim	-10132
▁urusan	-10133
▁colspan	-10134
▁genetik	-10135
▁diadopsi	-10136
▁Christopher	-10137
pet	-10138
kins	-10139
▁10,	-10140
▁Biz	-10141
▁ICAO	-10142
▁Roger	-10143
▁TUHAN	-10144
etujuan	-10145
mpangan	-10146
▁undang	-10147
▁komandan	-10148
▁konvensi	-10149
▁menganut	-10150
▁republik	-10151
▁Wu	-10152
aring	-10153
senjata	-10154
▁Taylor	-10155
▁padang	-10156
▁menderita	-10157
▁didominasi	-10158
tol	-10159
udy	-10160
lash	-10161
ogra	-10162
▁Moz	-10163
▁Tin	-10164
▁Apple	-10165
sebagai	-10166
▁kedalaman	-10167
▁karakteristik	-10168
Th	-10169
ingo	-10170
▁Dag	-10171
▁Ric	-10172
▁Tela	-10173
▁rawa	-10174
rahman	-10175
tuanya	-10176
▁kelak	-10177
▁konon	-10178
▁lemak	-10179
▁mahkota	-10180
▁Gregorian	-10181
▁menangkap	-10182
▁ditugaskan	-10183
▁persawahan	-10184
GA	-10185
700	-10186
▁Iv	-10187
▁Dra	-10188
▁Clark	-10189
▁Lirik	-10190
▁surah	-10191
aklukan	-10192
ambaran	-10193
▁Pekerjaan	-10194
▁Kazakhstan	-10195
Ro	-10196
ym	-10197
cks	-10198
nen	-10199
angu	-10200
▁Bart	-10201
▁Marsh	-10202
▁dipas	-10203
ylvania	-10204
▁kucing	-10205
▁Lockheed	-10206
▁karangan	-10207
▁peneliti	-10208
▁beralamat	-10209
▁Purwokerto	-10210
mid	-10211
▁Bula	-10212
▁Ford	-10213
▁1994,	-10214
▁layak	-10215
▁parkir	-10216
▁Magetan	-10217
▁pandang	-10218
erv	-10219
lek	-10220
jian	-10221
lami	-10222
▁Non	-10223
▁Saluran	-10224
▁pendeta	-10225
▁gemeente	-10226
lasifikasi	-10227
▁Foundation	-10228
▁Pengadilan	-10229
9).	-10230
ely	-10231
▁).	-10232
▁MD	-10233
▁ul	-10234
aras	-10235
cess	-10236
▁Dew	-10237
▁1992,	-10238
▁Garis	-10239
▁Secret	-10240
▁Kejadian	-10241
▁otomotif	-10242
▁Halichond	-10243
▁kekerasan	-10244
uz	-10245
mir	-10246
tem	-10247
▁58	-10248
▁Puc	-10249
antri	-10250
▁Plus	-10251
▁SCTV	-10252
▁gram	-10253
▁Manga	-10254
▁vocal	-10255
▁hendak	-10256
▁Merdeka	-10257
▁pinggir	-10258
▁terlahir	-10259
▁Komisaris	-10260
sed	-10261
▁NT	-10262
▁Pah	-10263
entar	-10264
erjakan	-10265
▁Dragon	-10266
▁Engine	-10267
▁Tunisia	-10268
▁menambah	-10269
▁mengakui	-10270
▁signifikan	-10271
▁Kartanegara	-10272
▁it	-10273
able	-10274
ilir	-10275
osof	-10276
▁Cep	-10277
benar	-10278
bulan	-10279
▁dibaca	-10280
▁Pokémon	-10281
▁pustaka	-10282
▁insinyur	-10283
IC	-10284
7).	-10285
oria	-10286
▁tri	-10287
ariat	-10288
▁Boys	-10289
▁Brah	-10290
ahlian	-10291
bourne	-10292
▁Friend	-10293
▁dibutuhkan	-10294
▁dijalankan	-10295
ibi	-10296
uaya	-10297
apang	-10298
beria	-10299
▁Paulo	-10300
lakukan	-10301
▁Cianjur	-10302
▁menyukai	-10303
▁Pendirian	-10304
▁Ekstrakurikuler	-10305
8),	-10306
▁72	-10307
▁Rw	-10308
asit	-10309
▁Cro	-10310
▁mac	-10311
▁und	-10312
▁1995,	-10313
▁Sarah	-10314
▁menda	-10315
urnalis	-10316
▁dipasang	-10317
irl	-10318
ubi	-10319
yeo	-10320
▁Kej	-10321
▁1940	-10322
▁Fall	-10323
larasi	-10324
▁kolam	-10325
izinkan	-10326
angkutan	-10327
Institute	-10328
▁mengganti	-10329
▁pernyataan	-10330
ices	-10331
ides	-10332
▁27.	-10333
▁Jln	-10334
▁sol	-10335
▁meri	-10336
▁berkata	-10337
▁Samudera	-10338
BK	-10339
kot	-10340
▁600	-10341
▁long	-10342
▁Tibet	-10343
▁Calcio	-10344
▁legend	-10345
▁Berbeda	-10346
▁atmosfer	-10347
▁Friedrich	-10348
Bo	-10349
icu	-10350
▁af	-10351
ince	-10352
▁tir	-10353
ellow	-10354
gunya	-10355
▁Blan	-10356
▁Hero	-10357
▁Kola	-10358
▁Mits	-10359
▁Sina	-10360
empeng	-10361
▁2015.	-10362
▁Honda	-10363
▁bakal	-10364
▁murni	-10365
▁dicetak	-10366
▁Millidge	-10367
▁didesain	-10368
▁astronomi	-10369
▁Komunikasi	-10370
▁fo	-10371
▁Cav	-10372
▁Hea	-10373
▁Kit	-10374
▁Lyn	-10375
ancur	-10376
▁fase	-10377
opuler	-10378
▁Bukan	-10379
▁Yugos	-10380
▁dilay	-10381
andakan	-10382
▁Persib	-10383
▁Ternate	-10384
▁pranala	-10385
▁kritikus	-10386
▁pengacara	-10387
▁Keterangan	-10388
mac	-10389
liga	-10390
mall	-10391
▁NGC	-10392
▁Pia	-10393
▁Derb	-10394
▁roti	-10395
rotoma	-10396
▁Berat	-10397
▁Cross	-10398
▁tekst	-10399
▁Seribu	-10400
▁Nephrotoma	-10401
aly	-10402
gaya	-10403
omer	-10404
▁Var	-10405
▁Anne	-10406
▁Chap	-10407
▁Jeff	-10408
▁Page	-10409
ulitan	-10410
▁2017,	-10411
▁Tanda	-10412
ografer	-10413
▁Shanghai	-10414
kol	-10415
amer	-10416
opor	-10417
▁Globe	-10418
▁rusak	-10419
▁mamalia	-10420
▁romantis	-10421
▁setinggi	-10422
▁perkotaan	-10423
Arab	-10424
▁adi	-10425
▁cur	-10426
utbol	-10427
▁Gaya	-10428
antium	-10429
▁pasca	-10430
▁Econom	-10431
▁Uganda	-10432
▁gratis	-10433
▁disebelah	-10434
▁Generation	-10435
▁Mahabharata	-10436
▁Datuk	-10437
▁gerak	-10438
ecahkan	-10439
▁Torino	-10440
▁memori	-10441
▁silang	-10442
▁semesta	-10443
▁Misalnya	-10444
▁Ortodoks	-10445
▁properti	-10446
▁memerankan	-10447
led	-10448
▁07	-10449
▁Wr	-10450
abut	-10451
sson	-10452
▁Fel	-10453
▁Lak	-10454
vokal	-10455
yanto	-10456
▁Book	-10457
▁kami	-10458
awaran	-10459
▁Salib	-10460
▁perut	-10461
▁Dahulu	-10462
▁wayang	-10463
lihatkan	-10464
▁Papirus	-10465
▁Soeharto	-10466
zil	-10467
uten	-10468
▁Doc	-10469
ayung	-10470
baiki	-10471
▁Hamb	-10472
ampton	-10473
▁2019,	-10474
▁Apost	-10475
▁tipis	-10476
▁ladang	-10477
▁Sachsen	-10478
▁bernomor	-10479
▁disertai	-10480
▁keinginan	-10481
▁menampung	-10482
sau	-10483
trin	-10484
dasar	-10485
inter	-10486
▁Mess	-10487
▁erat	-10488
bangan	-10489
▁Leeds	-10490
▁Point	-10491
▁sosok	-10492
ekutuan	-10493
▁Tambak	-10494
▁batuan	-10495
▁tarian	-10496
asaannya	-10497
erajinan	-10498
▁unggulan	-10499
▁sejarahnya	-10500
dut	-10501
▁(7	-10502
bulu	-10503
text	-10504
▁Pit	-10505
▁cak	-10506
onjol	-10507
▁Carter	-10508
▁IAURIF	-10509
▁Mantan	-10510
▁kartun	-10511
▁ng	-10512
▁vi	-10513
isau	-10514
esaya	-10515
▁Lamp	-10516
▁Menc	-10517
▁Jorong	-10518
▁dibeli	-10519
inguistik	-10520
▁dilaporkan	-10521
▁laboratorium	-10522
Ph	-10523
lum	-10524
▁SH	-10525
ejar	-10526
▁Jak	-10527
▁map	-10528
▁Dead	-10529
▁pesta	-10530
▁Sambas	-10531
▁supaya	-10532
▁Chamber	-10533
▁Melalui	-10534
▁konsumen	-10535
▁Ketinggian	-10536
mod	-10537
▁66	-10538
chin	-10539
otan	-10540
▁Ian	-10541
▁Sof	-10542
▁car	-10543
silah	-10544
uther	-10545
▁Nugini	-10546
▁Talang	-10547
▁mengha	-10548
▁timbul	-10549
▁Terdiri	-10550
▁pembela	-10551
▁Buleleng	-10552
▁terkadang	-10553
▁menghindari	-10554
ás	-10555
▁KH	-10556
▁Lh	-10557
▁Did	-10558
▁Fant	-10559
▁Stef	-10560
▁luka	-10561
▁Obser	-10562
▁kotak	-10563
▁Review	-10564
▁Sekutu	-10565
▁Karibia	-10566
▁tersisa	-10567
▁berangkat	-10568
▁perdamaian	-10569
sub	-10570
▁PK	-10571
▁Lep	-10572
▁Nab	-10573
▁aku	-10574
▁len	-10575
▁1951	-10576
ahabatan	-10577
▁beralih	-10578
ominasikan	-10579
▁Py	-10580
▁ok	-10581
esse	-10582
▁Urug	-10583
▁Yosh	-10584
jahter	-10585
disebut	-10586
▁Bisnis	-10587
▁Koordinat	-10588
▁dibawakan	-10589
▁komposisi	-10590
▁Konstantin	-10591
▁diharapkan	-10592
tig	-10593
Kota	-10594
illy	-10595
undi	-10596
▁Tid	-10597
agara	-10598
▁Grum	-10599
▁Hindi	-10600
artment	-10601
▁Yesaya	-10602
▁Anthony	-10603
▁berbagi	-10604
▁Yugoslavia	-10605
uny	-10606
lien	-10607
▁Das	-10608
ihkan	-10609
▁2014.	-10610
▁Europ	-10611
▁ramai	-10612
akamkan	-10613
hasilan	-10614
▁Walter	-10615
▁kapten	-10616
▁Estonia	-10617
▁langkah	-10618
▁Infanteri	-10619
▁pengolahan	-10620
Pol	-10621
-197	-10622
iket	-10623
ship	-10624
kamah	-10625
▁Asam	-10626
ahaman	-10627
▁Atlan	-10628
▁Pohon	-10629
▁pakar	-10630
▁(1990)	-10631
▁Council	-10632
▁kabinet	-10633
▁terpanjang	-10634
▁information	-10635
–0	-10636
▁م	-10637
emo	-10638
fir	-10639
qui	-10640
reg	-10641
▁Sew	-10642
▁babi	-10643
▁1991,	-10644
▁Queen	-10645
▁Sipil	-10646
▁Under	-10647
▁kasar	-10648
▁Perbeda	-10649
▁ratusan	-10650
▁pemainnya	-10651
III	-10652
jet	-10653
ziz	-10654
▁KL	-10655
isat	-10656
ombo	-10657
ping	-10658
▁Kod	-10659
ebang	-10660
▁Yuan	-10661
▁Kenya	-10662
▁bunuh	-10663
▁Umumnya	-10664
▁reformasi	-10665
eskripsikan	-10666
▁62	-10667
mont	-10668
onto	-10669
opik	-10670
▁Deb	-10671
▁Hav	-10672
amika	-10673
inaan	-10674
manen	-10675
▁Bass	-10676
▁Fuji	-10677
▁Siak	-10678
onster	-10679
▁Ramad	-10680
▁sikap	-10681
▁mengudara	-10682
▁Politeknik	-10683
▁12,	-10684
▁Int	-10685
semen	-10686
▁Gabri	-10687
▁Boston	-10688
▁Family	-10689
▁risiko	-10690
▁berguna	-10691
▁diameter	-10692
▁terbunuh	-10693
▁Microcion	-10694
ים	-10695
sas	-10696
▁ES	-10697
▁Uz	-10698
▁sb	-10699
▁Ste	-10700
▁Amir	-10701
▁Mara	-10702
▁Mini	-10703
▁Pura	-10704
▁1988.	-10705
▁krist	-10706
▁ribuan	-10707
▁München	-10708
▁semangat	-10709
▁pelindung	-10710
▁Microcionidae	-10711
UR	-10712
.),	-10713
buan	-10714
cang	-10715
ovan	-10716
utri	-10717
▁Pre	-10718
▁Suh	-10719
▁pir	-10720
▁uap	-10721
itiga	-10722
▁turb	-10723
▁Tangk	-10724
▁Volks	-10725
▁bagus	-10726
▁Puteri	-10727
▁finalis	-10728
▁pameran	-10729
▁pembukaan	-10730
ça	-10731
▁ب	-10732
0).	-10733
awe	-10734
bes	-10735
lyn	-10736
upe	-10737
▁ABC	-10738
edera	-10739
▁Four	-10740
▁Kand	-10741
▁back	-10742
endral	-10743
▁tabel	-10744
▁Joseon	-10745
▁Mongol	-10746
▁invasi	-10747
▁Harvard	-10748
▁Kuantan	-10749
▁mandiri	-10750
▁keselamatan	-10751
▁Broadcasting	-10752
AK	-10753
see	-10754
roid	-10755
▁Ais	-10756
▁Jus	-10757
▁Rab	-10758
▁ver	-10759
▁Aven	-10760
▁From	-10761
▁Vinc	-10762
▁Wall	-10763
awinan	-10764
▁dieks	-10765
▁efisi	-10766
▁adiknya	-10767
▁Singapore	-10768
qi	-10769
9),	-10770
▁63	-10771
sent	-10772
benda	-10773
▁Tran	-10774
▁pacar	-10775
phantes	-10776
sekitar	-10777
▁(1994)	-10778
▁Cabang	-10779
▁Studies	-10780
▁operator	-10781
bap	-10782
iro	-10783
▁Civ	-10784
▁datar	-10785
▁Soccer	-10786
▁sesudah	-10787
▁Definisi	-10788
▁negaranya	-10789
▁Indonesian	-10790
▁peluncuran	-10791
▁berpasangan	-10792
▁78	-10793
▁CC	-10794
000.	-10795
enge	-10796
stal	-10797
▁ori	-10798
▁Delta	-10799
▁akrab	-10800
▁Johnny	-10801
▁Sragen	-10802
▁otonom	-10803
▁penerus	-10804
▁pemegang	-10805
▁berperang	-10806
▁membedakan	-10807
▁Za	-10808
esel	-10809
▁Kei	-10810
▁Tep	-10811
elles	-10812
inton	-10813
▁Step	-10814
▁mena	-10815
▁kakao	-10816
▁Alumni	-10817
▁Bawang	-10818
▁komunis	-10819
▁bergelar	-10820
▁pembantu	-10821
▁Arondisemen	-10822
▁menyerahkan	-10823
▁dinominasikan	-10824
aco	-10825
rary	-10826
▁Sea	-10827
ombak	-10828
▁Elek	-10829
▁1984.	-10830
▁Nelson	-10831
▁tempuh	-10832
ungkapkan	-10833
▁dimakamkan	-10834
▁diproduseri	-10835
▁disampaikan	-10836
ress	-10837
▁102	-10838
▁Isa	-10839
otasi	-10840
redit	-10841
▁Bait	-10842
▁kalau	-10843
▁lemah	-10844
mentasi	-10845
▁Konflik	-10846
▁menurun	-10847
▁Sriwijaya	-10848
▁dipandang	-10849
▁fisikawan	-10850
▁meneruskan	-10851
ms	-10852
head	-10853
▁mal	-10854
anduk	-10855
ences	-10856
oleon	-10857
▁Andy	-10858
▁Luis	-10859
▁Jatin	-10860
▁audisi	-10861
▁gejala	-10862
▁semula	-10863
▁Sarjana	-10864
▁Pematang	-10865
▁sempurna	-10866
▁spesifik	-10867
eru	-10868
rix	-10869
▁Lé	-10870
▁Zi	-10871
▁ret	-10872
▁ratu	-10873
▁1986.	-10874
▁baris	-10875
▁pecah	-10876
umenter	-10877
▁sempit	-10878
ancarkan	-10879
▁susunan	-10880
▁Prodeskel	-10881
▁menempatkan	-10882
PL	-10883
lap	-10884
ohn	-10885
atin	-10886
▁Hub	-10887
▁rem	-10888
▁Free	-10889
▁Mesa	-10890
▁Stone	-10891
▁pasang	-10892
▁siklus	-10893
jahteraan	-10894
▁Pernikahan	-10895
ño	-10896
dio	-10897
ejo	-10898
hum	-10899
ugo	-10900
odoh	-10901
ondo	-10902
▁Bes	-10903
▁Mex	-10904
▁USA	-10905
Babak	-10906
osiar	-10907
▁Memp	-10908
▁With	-10909
▁mala	-10910
▁staf	-10911
ambigu	-10912
▁Alber	-10913
▁Canada	-10914
▁Margar	-10915
▁arkeologi	-10916
▁bertempat	-10917
▁kesuksesan	-10918
▁Encyclopedia	-10919
ATO	-10920
eca	-10921
roto	-10922
▁Jur	-10923
▁1939	-10924
▁Gong	-10925
▁Mold	-10926
▁Buruh	-10927
▁Titan	-10928
▁catur	-10929
ellidae	-10930
▁Nikola	-10931
▁dilalui	-10932
▁reguler	-10933
▁Komponen	-10934
▁menonjol	-10935
▁Komunitas	-10936
–6	-10937
tau	-10938
ahap	-10939
ambe	-10940
load	-10941
▁800	-10942
▁BDF	-10943
▁Hun	-10944
▁Penj	-10945
▁tajam	-10946
▁Suzuki	-10947
▁landas	-10948
▁sayuran	-10949
▁Bilangan	-10950
▁Transform	-10951
It	-10952
arus	-10953
▁Amaz	-10954
▁Grob	-10955
▁Josh	-10956
angdut	-10957
gazine	-10958
▁bungsu	-10959
▁melatih	-10960
▁Sosialis	-10961
▁menurunkan	-10962
gel	-10963
kul	-10964
▁fi	-10965
arya	-10966
obox	-10967
▁gam	-10968
onstr	-10969
▁dada	-10970
▁main	-10971
onakan	-10972
orning	-10973
andanya	-10974
atalkan	-10975
▁Valley	-10976
▁Halaman	-10977
▁dominan	-10978
▁harapan	-10979
▁ternama	-10980
▁BDFutbol	-10981
▁kesulitan	-10982
▁pemberian	-10983
ror	-10984
▁AN	-10985
html	-10986
▁keg	-10987
▁Cint	-10988
▁Mbah	-10989
ramayu	-10990
ituania	-10991
ordinasi	-10992
▁Uruguay	-10993
▁Carolina	-10994
▁tersusun	-10995
DE	-10996
▁MS	-10997
▁qu	-10998
ffen	-10999
ogne	-11000
sian	-11001
▁Tot	-11002
eller	-11003
pasar	-11004
▁Ethi	-11005
inella	-11006
▁1982.	-11007
▁2006)	-11008
▁bumbu	-11009
▁robot	-11010
▁Pemuda	-11011
issodend	-11012
▁hidrogen	-11013
▁Callyspongia	-11014
Li	-11015
RC	-11016
imu	-11017
uba	-11018
ates	-11019
orts	-11020
▁Ass	-11021
▁Tek	-11022
▁Pont	-11023
▁dieja	-11024
▁wajib	-11025
▁kemiri	-11026
▁geologi	-11027
nsylvania	-11028
▁Oriental	-11029
▁dilayani	-11030
issodendoryx	-11031
▁kepemilikan	-11032
ulf	-11033
cons	-11034
uruk	-11035
▁Fun	-11036
▁Gri	-11037
▁Gug	-11038
▁est	-11039
▁Gala	-11040
▁beda	-11041
▁Keber	-11042
▁Landa	-11043
▁bersih	-11044
▁Lintang	-11045
▁kambing	-11046
▁otoritas	-11047
▁telekomunikasi	-11048
My	-11049
▁SI	-11050
sesi	-11051
sier	-11052
▁ent	-11053
▁vir	-11054
yawar	-11055
▁Bird	-11056
▁Nich	-11057
▁Rute	-11058
▁Sila	-11059
▁Wild	-11060
anggul	-11061
▁galak	-11062
▁German	-11063
▁Marcel	-11064
▁Hidayat	-11065
▁ditinggal	-11066
▁pengakuan	-11067
El	-11068
uty	-11069
ghan	-11070
▁(15	-11071
▁Dyn	-11072
adasi	-11073
ancam	-11074
intin	-11075
▁Front	-11076
▁audio	-11077
▁jahat	-11078
▁Berita	-11079
▁semasa	-11080
ristenan	-11081
▁terluas	-11082
▁Pimpinan	-11083
▁perkataan	-11084
okh	-11085
▁Yun	-11086
ilton	-11087
▁Ahli	-11088
▁budi	-11089
▁live	-11090
▁Marta	-11091
▁Yonif	-11092
▁minum	-11093
▁pembu	-11094
▁hancur	-11095
misalnya	-11096
▁termuda	-11097
▁Sembilan	-11098
▁terpaksa	-11099
▁110	-11100
▁nom	-11101
5.000	-11102
along	-11103
entik	-11104
▁Ibnu	-11105
▁Jami	-11106
▁Know	-11107
▁1987.	-11108
▁Jumat	-11109
▁Tugas	-11110
▁siang	-11111
inental	-11112
▁Office	-11113
ulasinya	-11114
▁penyiar	-11115
▁perawatan	-11116
▁Penyisihan	-11117
cak	-11118
not	-11119
Data	-11120
▁119	-11121
ainya	-11122
▁1936	-11123
hausen	-11124
▁Oscar	-11125
▁(1989)	-11126
▁Regional	-11127
▁akademik	-11128
▁protokol	-11129
gal	-11130
sec	-11131
zzo	-11132
dewa	-11133
uria	-11134
▁Sih	-11135
atika	-11136
ianus	-11137
isari	-11138
▁Datar	-11139
▁Mobile	-11140
▁Tanaman	-11141
▁summary	-11142
▁semenanjung	-11143
▁Kotawaringin	-11144
%)	-11145
cur	-11146
mem	-11147
▁fa	-11148
ares	-11149
sang	-11150
▁Cun	-11151
▁São	-11152
▁bir	-11153
▁Bont	-11154
▁Gang	-11155
ampang	-11156
▁koran	-11157
▁leher	-11158
▁level	-11159
▁paket	-11160
▁seper	-11161
▁(2015)	-11162
▁melaju	-11163
▁Valencia	-11164
tz	-11165
wik	-11166
estra	-11167
ining	-11168
▁Elect	-11169
▁berta	-11170
▁Kupang	-11171
aransemen	-11172
▁Mahkamah	-11173
▁Napoleon	-11174
▁semenjak	-11175
▁Kendaraan	-11176
▁Universal	-11177
istribusikan	-11178
▁Pennsylvania	-11179
So	-11180
enh	-11181
hen	-11182
▁AT	-11183
▁BA	-11184
▁pp	-11185
klop	-11186
ures	-11187
▁Jog	-11188
antas	-11189
empur	-11190
ities	-11191
ontrol	-11192
▁Basis	-11193
▁Henri	-11194
▁Technology	-11195
Af	-11196
ulia	-11197
▁Jet	-11198
▁Nak	-11199
didik	-11200
▁kari	-11201
▁(1993)	-11202
▁komando	-11203
▁Jonathan	-11204
▁kakaknya	-11205
▁Kadipaten	-11206
▁disetujui	-11207
ONE	-11208
pal	-11209
was	-11210
guel	-11211
ausan	-11212
▁Orde	-11213
▁ranc	-11214
ometri	-11215
▁Setia	-11216
▁diisi	-11217
pemeran	-11218
▁Subang	-11219
▁moyang	-11220
▁diperankan	-11221
▁menghentikan	-11222
0),	-11223
alth	-11224
enix	-11225
▁(1.	-11226
▁Asy	-11227
▁nit	-11228
▁Baek	-11229
▁Bord	-11230
▁Jane	-11231
▁Qing	-11232
▁Comte	-11233
ewaskan	-11234
▁primer	-11235
▁menerap	-11236
▁warisan	-11237
▁diceritakan	-11238
▁73	-11239
▁77	-11240
▁85	-11241
enep	-11242
itia	-11243
waan	-11244
▁Rai	-11245
oster	-11246
▁Luwu	-11247
▁edit	-11248
▁mdpl	-11249
iliasi	-11250
▁Linux	-11251
▁Sabah	-11252
▁Church	-11253
▁Dharma	-11254
▁Jangan	-11255
▁Russell	-11256
▁terdahulu	-11257
klim	-11258
wari	-11259
▁had	-11260
▁Kuba	-11261
anyian	-11262
aksikan	-11263
▁(2016)	-11264
▁Malaya	-11265
▁Rektor	-11266
▁Sisilia	-11267
▁otonomi	-11268
▁District	-11269
▁berfokus	-11270
▁legislatif	-11271
SE	-11272
esua	-11273
nell	-11274
ulatan	-11275
▁Singh	-11276
▁serat	-11277
▁seleksi	-11278
▁psikologi	-11279
▁penyebaran	-11280
▁peternakan	-11281
▁9,	-11282
chan	-11283
▁Hir	-11284
▁mey	-11285
ating	-11286
▁Naga	-11287
▁menem	-11288
astikan	-11289
osaurus	-11290
▁visual	-11291
▁antarik	-11292
▁eksperim	-11293
▁menuntut	-11294
▁he	-11295
into	-11296
side	-11297
▁Now	-11298
▁buk	-11299
▁lemb	-11300
alanya	-11301
nyanyi	-11302
▁Iklim	-11303
▁frasa	-11304
▁Athlet	-11305
▁Petang	-11306
▁Rahman	-11307
▁muatan	-11308
essional	-11309
▁Ibukota	-11310
icrotipula	-11311
▁kesalahan	-11312
▁menghormati	-11313
eiro	-11314
emis	-11315
omar	-11316
▁Biro	-11317
▁Otto	-11318
ilitas	-11319
▁Tengg	-11320
▁Schles	-11321
▁pribumi	-11322
▁kebenaran	-11323
▁kedelapan	-11324
▁pertambangan	-11325
▁menyelamatkan	-11326
▁Á	-11327
cer	-11328
eke	-11329
▁69	-11330
saat	-11331
onder	-11332
▁Meny	-11333
duktor	-11334
isahan	-11335
▁Mario	-11336
hatikan	-11337
▁(1991)	-11338
▁(1992)	-11339
▁Sleman	-11340
▁Penyakit	-11341
▁pedesaan	-11342
▁diucapkan	-11343
▁Konferensi	-11344
▁legendaris	-11345
▁membawakan	-11346
▁memperluas	-11347
▁konsentrasi	-11348
▁Banjarnegara	-11349
▁mengelilingi	-11350
gol	-11351
uin	-11352
▁Mé	-11353
▁tun	-11354
▁Boli	-11355
▁What	-11356
▁pasaran	-11357
▁Iskandar	-11358
▁mengenakan	-11359
▁2)	-11360
utip	-11361
▁Mix	-11362
▁VOC	-11363
▁Hadi	-11364
elatan	-11365
▁2005)	-11366
▁Judul	-11367
▁Perse	-11368
▁sains	-11369
▁Aktris	-11370
▁Journal	-11371
▁Studios	-11372
▁dibanding	-11373
▁kebebasan	-11374
▁menewaskan	-11375
los	-11376
vet	-11377
yut	-11378
▁Cut	-11379
amana	-11380
eland	-11381
ulisti	-11382
▁lazim	-11383
▁Aksara	-11384
▁Manuel	-11385
▁putera	-11386
▁pembuka	-11387
▁percobaan	-11388
▁mempromosikan	-11389
!!	-11390
BT	-11391
hop	-11392
eber	-11393
zmur	-11394
lamasi	-11395
▁Ghana	-11396
▁Alaska	-11397
▁dampak	-11398
eritanya	-11399
▁Pacific	-11400
▁plastik	-11401
▁tambang	-11402
onya	-11403
uble	-11404
▁179	-11405
▁Eug	-11406
▁Miz	-11407
▁Cana	-11408
▁salat	-11409
ikasikan	-11410
▁mekanisme	-11411
▁kandangnya	-11412
ان	-11413
Uni	-11414
pus	-11415
idor	-11416
usta	-11417
▁Audi	-11418
▁Spac	-11419
▁1980.	-11420
▁Marin	-11421
▁Prima	-11422
▁Ulama	-11423
▁comune	-11424
▁Potensi	-11425
▁petualangan	-11426
8).	-11427
SMAN	-11428
appy	-11429
buku	-11430
dorf	-11431
▁Vit	-11432
▁Arti	-11433
▁NASA	-11434
▁Seng	-11435
▁Susi	-11436
▁1993,	-11437
▁Sabtu	-11438
▁Speed	-11439
▁Tubuh	-11440
▁chart	-11441
▁Format	-11442
▁Sports	-11443
ichopeza	-11444
▁sisanya	-11445
▁06	-11446
zona	-11447
buluh	-11448
▁Shar	-11449
▁damai	-11450
▁tahan	-11451
▁Harian	-11452
▁Bohemia	-11453
▁pengisi	-11454
▁Demokrasi	-11455
▁Manggarai	-11456
▁destinasi	-11457
▁kandungan	-11458
▁keponakan	-11459
▁Penampilan	-11460
▁pendidikannya	-11461
neo	-11462
▁AG	-11463
▁DI	-11464
▁EP	-11465
▁Od	-11466
▁Dog	-11467
▁Fab	-11468
▁flu	-11469
gorit	-11470
olasi	-11471
▁Semb	-11472
▁Tugu	-11473
▁Forum	-11474
▁Kodam	-11475
▁Lomba	-11476
▁Total	-11477
▁sepat	-11478
▁track	-11479
ication	-11480
ingguan	-11481
obatkan	-11482
▁Jersey	-11483
▁Simbol	-11484
▁bupati	-11485
▁Ministry	-11486
▁kecilnya	-11487
Da	-11488
Cla	-11489
ood	-11490
yla	-11491
▁SP	-11492
▁Hud	-11493
▁Who	-11494
jikan	-11495
ondow	-11496
▁1930	-11497
▁mode	-11498
▁1981.	-11499
▁Tuban	-11500
▁Zhang	-11501
▁sound	-11502
egradasi	-11503
esuaikan	-11504
ungagung	-11505
▁Seiring	-11506
▁Sindang	-11507
▁bentuknya	-11508
▁mendengar	-11509
▁menerapkan	-11510
UC	-11511
iaga	-11512
enjar	-11513
▁1941	-11514
▁Terp	-11515
▁sila	-11516
ternal	-11517
▁Baden	-11518
▁Istri	-11519
▁cetak	-11520
ospital	-11521
▁Puerto	-11522
▁Mahkota	-11523
▁telinga	-11524
agia	-11525
alisi	-11526
bahan	-11527
▁Diam	-11528
▁Fari	-11529
▁pred	-11530
▁Bebek	-11531
▁Rokan	-11532
tagonis	-11533
▁Produs	-11534
▁Library	-11535
▁Kesenian	-11536
▁Mandarin	-11537
sar	-11538
tap	-11539
tha	-11540
abol	-11541
▁Fon	-11542
▁hit	-11543
▁sbg	-11544
▁Hans	-11545
▁Moto	-11546
ikawan	-11547
▁Bruce	-11548
▁dimas	-11549
▁tawar	-11550
ambilan	-11551
▁Slamet	-11552
▁pisang	-11553
angkitan	-11554
▁Serangan	-11555
▁Indramayu	-11556
▁Schleswig	-11557
▁bercerita	-11558
lasifikasikan	-11559
fri	-11560
key	-11561
mau	-11562
▁CH	-11563
▁(10	-11564
▁Mut	-11565
▁Ted	-11566
ulung	-11567
▁Burn	-11568
▁awak	-11569
▁Pintu	-11570
▁sandi	-11571
▁Afghan	-11572
▁Bundes	-11573
▁Legend	-11574
▁Napoli	-11575
kantoran	-11576
▁Rembang	-11577
▁dilarang	-11578
▁Perkebunan	-11579
▁dibubarkan	-11580
arut	-11581
emas	-11582
isai	-11583
▁Eku	-11584
▁anc	-11585
▁wir	-11586
kreis	-11587
▁Ayub	-11588
▁Drum	-11589
▁Tamil	-11590
▁bambu	-11591
untuhan	-11592
▁(1988)	-11593
▁Metode	-11594
▁Morning	-11595
▁komponis	-11596
▁permanen	-11597
▁dikunjungi	-11598
▁berpendapat	-11599
▁mengisahkan	-11600
sw	-11601
ât	-11602
mit	-11603
raw	-11604
osan	-11605
osom	-11606
pons	-11607
▁lum	-11608
▁Ajax	-11609
▁Konon	-11610
▁Syekh	-11611
▁optik	-11612
▁Matthe	-11613
▁Kembang	-11614
▁Sumenep	-11615
▁latihan	-11616
▁seluler	-11617
▁Ketapang	-11618
▁Melbourne	-11619
▁Australian	-11620
▁terbentuknya	-11621
vir	-11622
▁Ark	-11623
▁Nil	-11624
▁Fire	-11625
▁Orne	-11626
▁Said	-11627
▁kekasih	-11628
▁kekalahan	-11629
▁persamaan	-11630
▁prefektur	-11631
▁Pengundian	-11632
ск	-11633
lahi	-11634
uris	-11635
▁Fen	-11636
▁Oce	-11637
▁Kaum	-11638
▁murah	-11639
unculan	-11640
▁Battle	-11641
▁Geodia	-11642
▁Latvia	-11643
▁belahan	-11644
▁terbukti	-11645
▁Frankfurt	-11646
▁Penetapan	-11647
▁statistik	-11648
BO	-11649
To	-11650
UL	-11651
eor	-11652
nel	-11653
-19.	-11654
egon	-11655
emer	-11656
leks	-11657
more	-11658
omet	-11659
opel	-11660
▁Cag	-11661
▁Liu	-11662
epang	-11663
lassi	-11664
▁Cala	-11665
▁YouT	-11666
gereja	-11667
▁hakim	-11668
▁Antark	-11669
epakatan	-11670
▁Keduanya	-11671
▁Kotabaru	-11672
▁sekunder	-11673
▁penurunan	-11674
▁Perdagangan	-11675
▁Metropolitan	-11676
▁persimpangan	-11677
rek	-11678
zal	-11679
▁}}	-11680
▁Was	-11681
▁Wed	-11682
▁Gadis	-11683
▁Sukam	-11684
▁Sukar	-11685
▁kawan	-11686
▁Nevada	-11687
▁editor	-11688
▁merekam	-11689
▁European	-11690
▁Grobogan	-11691
▁mengukur	-11692
▁pengajar	-11693
▁Perbedaan	-11694
▁Darussalam	-11695
▁operasional	-11696
▁persetujuan	-11697
lom	-11698
▁68	-11699
oven	-11700
trom	-11701
▁fik	-11702
trans	-11703
▁Cess	-11704
▁Laos	-11705
▁krisis	-11706
▁bioskop	-11707
▁cadangan	-11708
▁konsonan	-11709
▁transfer	-11710
chy	-11711
sol	-11712
uer	-11713
anao	-11714
ayap	-11715
usif	-11716
▁Ele	-11717
▁doa	-11718
ayasa	-11719
▁Cari	-11720
itamin	-11721
▁Arena	-11722
igurasi	-11723
▁Terjun	-11724
▁Pariaman	-11725
▁menyusun	-11726
02,	-11727
San	-11728
rida	-11729
▁Cao	-11730
▁Ost	-11731
dusun	-11732
intar	-11733
▁Fish	-11734
▁Herz	-11735
▁cair	-11736
▁krit	-11737
alisme	-11738
▁Halim	-11739
▁budak	-11740
▁stats	-11741
▁Prince	-11742
awancara	-11743
▁Langkat	-11744
▁membran	-11745
▁membayar	-11746
pemerannya	-11747
▁antariksa	-11748
▁penghubung	-11749
Men	-11750
▁PM	-11751
▁lo	-11752
-20.	-11753
esti	-11754
idul	-11755
onde	-11756
anyaan	-11757
▁Hiros	-11758
▁Johor	-11759
▁harta	-11760
▁ternak	-11761
▁Vatikan	-11762
▁jenjang	-11763
▁Indosiar	-11764
▁kesembilan	-11765
▁digabungkan	-11766
▁perpustakaan	-11767
▁memperlihatkan	-11768
cle	-11769
ful	-11770
ops	-11771
—19	-11772
musi	-11773
▁Wit	-11774
▁cor	-11775
butan	-11776
▁Ohio	-11777
▁Thai	-11778
idikan	-11779
▁Jason	-11780
▁Tujuh	-11781
intisan	-11782
▁radiasi	-11783
▁hidangan	-11784
▁perunggu	-11785
▁diletakkan	-11786
▁Bibliografi	-11787
▁Transformers	-11788
ici	-11789
▁76	-11790
Pers	-11791
egro	-11792
ensif	-11793
urung	-11794
uthor	-11795
▁Baik	-11796
▁Lind	-11797
▁Rejo	-11798
buhkan	-11799
▁Sawit	-11800
▁Western	-11801
integrasi	-11802
▁perbuatan	-11803
▁Berbatasan	-11804
▁pembakaran	-11805
▁pendekatan	-11806
▁pengamatan	-11807
▁pengukuran	-11808
▁memindahkan	-11809
="5	-11810
boh	-11811
▁99	-11812
▁IP	-11813
arau	-11814
▁Aff	-11815
▁Ida	-11816
wagen	-11817
▁Gory	-11818
▁kasih	-11819
ertakan	-11820
▁Miguel	-11821
▁lengan	-11822
▁Matthew	-11823
▁akademi	-11824
▁article	-11825
▁Populasi	-11826
▁komposer	-11827
▁perasaan	-11828
▁terpadat	-11829
CH	-11830
wu	-11831
bir	-11832
▁LS	-11833
/201	-11834
aten	-11835
ches	-11836
illi	-11837
▁Kle	-11838
▁MRT	-11839
macam	-11840
▁1944	-11841
▁Biru	-11842
▁Info	-11843
▁Lagi	-11844
▁Memb	-11845
▁klad	-11846
▁resi	-11847
▁Party	-11848
▁Rekor	-11849
▁belak	-11850
▁kandi	-11851
▁Avenue	-11852
▁cedera	-11853
▁grafis	-11854
▁pewaris	-11855
▁Lituania	-11856
▁kriminal	-11857
▁kekuasaannya	-11858
sta	-11859
▁Va	-11860
holm	-11861
zawa	-11862
▁1901	-11863
▁Sher	-11864
ancing	-11865
okimia	-11866
▁Wijaya	-11867
▁Balapan	-11868
▁Bernard	-11869
▁Gulungan	-11870
▁berbahaya	-11871
▁kebakaran	-11872
HK	-11873
epan	-11874
issa	-11875
tiba	-11876
type	-11877
▁Alm	-11878
▁Bint	-11879
▁Datu	-11880
▁Jong	-11881
▁Kiss	-11882
▁Paya	-11883
▁Taip	-11884
▁mewah	-11885
▁target	-11886
▁tukang	-11887
▁Tetangga	-11888
▁jurnalis	-11889
▁bernyanyi	-11890
▁memerintahkan	-11891
▁Jar	-11892
▁Reb	-11893
attle	-11894
▁Abdur	-11895
▁Billy	-11896
▁Diego	-11897
▁Moore	-11898
▁setia	-11899
▁Energi	-11900
▁Kompas	-11901
▁Kramat	-11902
▁Moskwa	-11903
ulistiwa	-11904
▁(2004).	-11905
▁Moldova	-11906
▁beredar	-11907
▁interaksi	-11908
▁rancangan	-11909
▁penerbitan	-11910
";	-11911
Ab	-11912
aft	-11913
uit	-11914
▁96	-11915
▁ol	-11916
osit	-11917
▁Rej	-11918
▁sec	-11919
iting	-11920
▁Kuil	-11921
▁Rand	-11922
▁1983.	-11923
▁sawit	-11924
olehkan	-11925
▁(1985)	-11926
▁Ukuran	-11927
▁mazmur	-11928
▁menyel	-11929
▁Gondang	-11930
▁kerabat	-11931
▁Division	-11932
▁berjuang	-11933
▁Komposisi	-11934
▁mengendalikan	-11935
▁Meh	-11936
▁bib	-11937
▁ion	-11938
▁net	-11939
▁Dark	-11940
angkau	-11941
sumber	-11942
▁serba	-11943
hadiran	-11944
iharaan	-11945
▁Bangkok	-11946
▁Seragam	-11947
▁Tentang	-11948
▁diakses	-11949
▁filosof	-11950
▁Jayapura	-11951
▁diserang	-11952
▁keahlian	-11953
▁Frederick	-11954
▁penjelajah	-11955
eve	-11956
kus	-11957
pop	-11958
▁Kö	-11959
▁Ud	-11960
inas	-11961
yama	-11962
▁Hut	-11963
▁1929	-11964
gunung	-11965
epungan	-11966
▁Sumedang	-11967
▁Š	-11968
emy	-11969
idth	-11970
sana	-11971
▁peg	-11972
liter	-11973
onaut	-11974
▁Boul	-11975
▁Ende	-11976
▁Hass	-11977
▁Rawa	-11978
eteksi	-11979
▁1979.	-11980
ambatan	-11981
▁(1987)	-11982
▁goreng	-11983
▁konten	-11984
▁Bolaang	-11985
▁andalan	-11986
▁Pemberont	-11987
▁dikenakan	-11988
▁menjelang	-11989
▁perikanan	-11990
ift	-11991
0-19	-11992
▁11,	-11993
▁Saf	-11994
▁Hang	-11995
▁Rose	-11996
▁Sime	-11997
▁teor	-11998
amiang	-11999
aratan	-12000
▁1985.	-12001
▁Baron	-12002
▁Tapin	-12003
onsumsi	-12004
▁Hampir	-12005
▁People	-12006
▁meluas	-12007
▁endemik	-12008
oha	-12009
sono	-12010
zhab	-12011
▁Mys	-12012
▁NATO	-12013
▁Perl	-12014
▁runt	-12015
▁Death	-12016
▁Malik	-12017
▁Mulya	-12018
▁samud	-12019
dikenal	-12020
ematika	-12021
▁Mediter	-12022
▁alkohol	-12023
▁salinan	-12024
isionaris	-12025
▁Athletic	-12026
▁Michigan	-12027
▁kandidat	-12028
DP	-12029
-23	-12030
aph	-12031
erus	-12032
lack	-12033
utin	-12034
ortiv	-12035
▁Head	-12036
▁alum	-12037
▁klip	-12038
inerja	-12039
▁Guang	-12040
▁disip	-12041
▁Tintin	-12042
▁beliau	-12043
▁adaptasi	-12044
▁perlawanan	-12045
▁vertebrata	-12046
▁Perkembangan	-12047
▁terinspirasi	-12048
lio	-12049
rman	-12050
▁Arj	-12051
▁Era	-12052
▁Two	-12053
▁Graf	-12054
▁Hold	-12055
▁Mans	-12056
▁Ming	-12057
▁Brook	-12058
▁Fitur	-12059
▁Senin	-12060
▁jamur	-12061
▁sayur	-12062
▁Cessna	-12063
▁Kuning	-12064
bolinggo	-12065
▁Special	-12066
▁Community	-12067
▁Tulungagung	-12068
▁pemberontak	-12069
48.	-12070
cty	-12071
enga	-12072
orno	-12073
▁Bav	-12074
ariah	-12075
kecil	-12076
uryeo	-12077
ustik	-12078
▁krom	-12079
▁1945,	-12080
▁Jerry	-12081
Belanda	-12082
ayangan	-12083
▁ponsel	-12084
▁Dataran	-12085
▁bersatu	-12086
▁politis	-12087
▁silinder	-12088
▁ekspedisi	-12089
▁mendekati	-12090
▁menaklukkan	-12091
As	-12092
umo	-12093
▁61	-12094
ehan	-12095
eper	-12096
▁Beg	-12097
▁Hell	-12098
▁More	-12099
▁Poly	-12100
▁saya	-12101
▁(~400	-12102
▁Arema	-12103
▁Batur	-12104
▁Dance	-12105
▁Polda	-12106
▁gurun	-12107
▁libur	-12108
Station	-12109
saudara	-12110
▁Warner	-12111
▁pinyin	-12112
▁wahana	-12113
engkapan	-12114
▁galaksi	-12115
▁dihitung	-12116
▁penamaan	-12117
▁Statistics	-12118
ár	-12119
isy	-12120
▁Iz	-12121
▁700	-12122
▁pid	-12123
ustru	-12124
▁1937	-12125
▁juru	-12126
terior	-12127
trecht	-12128
▁Bujur	-12129
▁Kelly	-12130
▁Proto	-12131
egovina	-12132
▁Garuda	-12133
▁Grammy	-12134
▁kudeta	-12135
▁perdan	-12136
▁rohani	-12137
▁Sevilla	-12138
▁Village	-12139
▁dicapai	-12140
▁history	-12141
▁pembaca	-12142
Kelurahan	-12143
▁Bersenjata	-12144
▁sebaliknya	-12145
Pen	-12146
euk	-12147
mud	-12148
▁Kn	-12149
drum	-12150
gart	-12151
graf	-12152
▁lim	-12153
▁Surah	-12154
▁jarum	-12155
▁Phoenix	-12156
▁Topsent	-12157
▁favorit	-12158
▁disiplin	-12159
▁Mongondow	-12160
▁tingginya	-12161
▁dijelaskan	-12162
▁disediakan	-12163
▁pengobatan	-12164
▁perdananya	-12165
▁perhitungan	-12166
▁kelahirannya	-12167
Pd	-12168
yad	-12169
▁88	-12170
adam	-12171
▁Bap	-12172
uning	-12173
▁0.02	-12174
▁Ferd	-12175
▁Shim	-12176
▁Books	-12177
▁Lukas	-12178
▁(1986)	-12179
▁Nature	-12180
Holstein	-12181
▁Nominasi	-12182
▁Termasuk	-12183
▁bermacam	-12184
▁mengarah	-12185
▁Perumahan	-12186
▁sekretaris	-12187
Ter	-12188
ael	-12189
▁1/	-12190
emah	-12191
esna	-12192
iler	-12193
tica	-12194
▁178	-12195
▁1938	-12196
▁Alur	-12197
▁Kamu	-12198
▁Krak	-12199
▁Limb	-12200
▁kron	-12201
▁paus	-12202
antang	-12203
▁Gusta	-12204
▁wujud	-12205
▁Kampus	-12206
▁Provin	-12207
▁daring	-12208
▁sesama	-12209
ilangkan	-12210
ingkasan	-12211
umentasi	-12212
▁kehadiran	-12213
▁penyiaran	-12214
▁dokumenter	-12215
▁menekankan	-12216
▁pengendali	-12217
▁Spesifikasi	-12218
bps	-12219
ilid	-12220
name	-12221
▁Vel	-12222
▁Zul	-12223
inari	-12224
reasi	-12225
▁1935	-12226
▁Peta	-12227
▁TVRI	-12228
▁Titi	-12229
▁gran	-12230
ectron	-12231
▁2016.	-12232
▁Denis	-12233
▁Osaka	-12234
enovasi	-12235
ordania	-12236
▁Airbus	-12237
▁Goryeo	-12238
▁tahanan	-12239
▁penganut	-12240
▁rumahnya	-12241
▁berkumpul	-12242
▁kebiasaan	-12243
▁menikmati	-12244
▁pemasaran	-12245
▁Challenger	-12246
▁panjangnya	-12247
▁masyarakatnya	-12248
Car	-12249
otil	-12250
▁Bod	-12251
▁Trop	-12252
▁Wina	-12253
iriman	-12254
ophora	-12255
▁Babel	-12256
▁Cheng	-12257
▁Color	-12258
▁image	-12259
▁teluk	-12260
arahkan	-12261
asarana	-12262
▁YouTube	-12263
▁drummer	-12264
▁besarnya	-12265
▁Bizantium	-12266
▁kepadanya	-12267
lai	-12268
sim	-12269
til	-12270
burn	-12271
dale	-12272
date	-12273
etro	-12274
opol	-12275
▁Die	-12276
▁Ish	-12277
epend	-12278
ritik	-12279
▁Dona	-12280
▁Midd	-12281
▁Turn	-12282
▁Anwar	-12283
▁Chung	-12284
▁Rizal	-12285
▁Senat	-12286
▁Sinar	-12287
▁Wisnu	-12288
▁Putera	-12289
ambiguasi	-12290
▁Hospital	-12291
▁tingkatan	-12292
▁dinobatkan	-12293
▁mendominasi	-12294
Br	-12295
cht	-12296
▁Vf	-12297
▁Euro	-12298
▁Hiro	-12299
▁Kris	-12300
▁Misi	-12301
diaman	-12302
▁1986,	-12303
▁Artist	-12304
▁Pelita	-12305
▁cincin	-12306
▁bertani	-12307
▁popular	-12308
▁Goguryeo	-12309
▁Terakhir	-12310
▁asuransi	-12311
▁hubungannya	-12312
Hal	-12313
kak	-12314
bell	-12315
▁Gag	-12316
▁Pis	-12317
▁Zim	-12318
▁new	-12319
unsur	-12320
▁Baro	-12321
▁Evan	-12322
▁Glee	-12323
▁pala	-12324
▁Again	-12325
▁Jacob	-12326
▁bapak	-12327
▁pekan	-12328
▁hormon	-12329
▁pengas	-12330
▁Ekuador	-12331
▁kerajinan	-12332
▁menandakan	-12333
▁dipublikasikan	-12334
1/	-12335
itim	-12336
▁Cis	-12337
▁les	-12338
araka	-12339
genre	-12340
divisi	-12341
manuel	-12342
▁Kapol	-12343
▁Satur	-12344
▁proto	-12345
▁topik	-12346
ebutkan	-12347
goritme	-12348
▁Tebing	-12349
▁lautan	-12350
▁Keempat	-12351
▁ekspresi	-12352
▁Meninggal	-12353
On	-12354
▁br	-12355
peri	-12356
▁125	-12357
▁Tig	-12358
▁roh	-12359
awati	-12360
uskes	-12361
▁Cook	-12362
▁Ordo	-12363
▁Ptol	-12364
incian	-12365
▁Hills	-12366
emporer	-12367
▁Asahan	-12368
▁Murung	-12369
▁lembut	-12370
▁massal	-12371
▁Bersatu	-12372
▁mengeks	-12373
▁perbankan	-12374
▁Jatinegara	-12375
gh	-12376
rez	-12377
▁Ze	-12378
chal	-12379
▁Jas	-12380
mahera	-12381
▁moral	-12382
▁nukle	-12383
▁Publik	-12384
▁Utrecht	-12385
▁elektro	-12386
▁sponsor	-12387
▁Resolusi	-12388
▁lintasan	-12389
▁prosesor	-12390
▁perencanaan	-12391
UI	-12392
oco	-12393
▁XI	-12394
abah	-12395
komp	-12396
sius	-12397
▁Kil	-12398
burgh	-12399
▁Guar	-12400
▁Hana	-12401
▁Hugh	-12402
▁Peak	-12403
▁Prak	-12404
▁insp	-12405
utiara	-12406
unjungan	-12407
▁ditarik	-12408
▁Hamilton	-12409
▁Profesor	-12410
▁variabel	-12411
▁semifinal	-12412
ED	-12413
ffi	-12414
iks	-12415
olk	-12416
uci	-12417
▁08	-12418
▁UM	-12419
illo	-12420
udan	-12421
▁Ana	-12422
aktur	-12423
alaba	-12424
ambak	-12425
▁Resi	-12426
▁show	-12427
▁Jimmy	-12428
▁busana	-12429
▁terancam	-12430
▁Probolinggo	-12431
▁ditandatangani	-12432
ès	-12433
ān	-12434
Inf	-12435
▁09	-12436
▁{|	-12437
king	-12438
stor	-12439
▁DPRD	-12440
▁Haag	-12441
▁Jama	-12442
▁Mind	-12443
▁Umar	-12444
▁Three	-12445
▁Uzbek	-12446
▁Donald	-12447
▁Summer	-12448
▁pasien	-12449
▁sepatu	-12450
▁server	-12451
▁sentral	-12452
▁Facebook	-12453
▁bertopik	-12454
atulistiwa	-12455
▁lokomotif	-12456
▁pengembang	-12457
▁persahabatan	-12458
UK	-12459
ów	-12460
6),	-12461
gra	-12462
kia	-12463
▁74	-12464
ones	-12465
otar	-12466
vers	-12467
▁(14	-12468
▁eng	-12469
▁fos	-12470
ONEOS	-12471
▁Iwan	-12472
▁Linc	-12473
▁Lyon	-12474
▁Math	-12475
▁Maul	-12476
▁ensi	-12477
▁grav	-12478
▁klor	-12479
▁fosil	-12480
▁hebat	-12481
▁opera	-12482
anganan	-12483
▁Nicolas	-12484
▁Renault	-12485
▁pelanggan	-12486
cul	-12487
ebak	-12488
▁BMW	-12489
▁Dak	-12490
▁Teh	-12491
ekusi	-12492
▁Ranc	-12493
▁Spir	-12494
▁LONEOS	-12495
▁Vladim	-12496
▁sekutu	-12497
▁Babakan	-12498
▁Pustaka	-12499
▁asalnya	-12500
▁Mahasiswa	-12501
▁Department	-12502
▁pengawasan	-12503
▁PlayStation	-12504
Re	-12505
asir	-12506
enza	-12507
odin	-12508
tras	-12509
▁Hai	-12510
▁Tup	-12511
ument	-12512
▁Farm	-12513
▁semb	-12514
buahan	-12515
▁Allen	-12516
▁Parag	-12517
▁Minang	-12518
klopedia	-12519
▁Messier	-12520
▁Nunukan	-12521
ungguhnya	-12522
▁Apostolik	-12523
▁Publishing	-12524
▁Afghanistan	-12525
GI	-12526
Hy	-12527
OH	-12528
fl	-12529
boy	-12530
ste	-12531
▁Io	-12532
▁XX	-12533
orum	-12534
ouri	-12535
▁59.	-12536
▁Job	-12537
inium	-12538
▁Amin	-12539
▁hulu	-12540
▁wadah	-12541
▁Gambar	-12542
▁Markas	-12543
▁Selang	-12544
▁konsol	-12545
▁serius	-12546
▁temper	-12547
▁bukunya	-12548
▁pikiran	-12549
▁belakangan	-12550
Am	-12551
cam	-12552
aint	-12553
▁Ing	-12554
ongga	-12555
▁Gede	-12556
▁Pria	-12557
entian	-12558
▁1989,	-12559
▁Imper	-12560
▁Kanan	-12561
▁Nurul	-12562
▁Gyeong	-12563
▁guitar	-12564
▁runduk	-12565
balingga	-12566
uskesmas	-12567
▁Lumajang	-12568
▁kemajuan	-12569
▁Christmas	-12570
▁berkurang	-12571
EP	-12572
jer	-12573
cana	-12574
▁Wak	-12575
Lolos	-12576
iknya	-12577
▁Kami	-12578
▁pita	-12579
▁Bobby	-12580
▁Chron	-12581
▁Sumba	-12582
▁berak	-12583
▁rasul	-12584
antaian	-12585
▁Guitar	-12586
▁beribu	-12587
▁jemaat	-12588
▁Bavaria	-12589
▁bermukim	-12590
▁meminjam	-12591
▁sportbox	-12592
▁perkembangannya	-12593
DS	-12594
dt	-12595
afe	-12596
fan	-12597
▁67	-12598
romo	-12599
▁Kub	-12600
arikh	-12601
owoso	-12602
▁1913	-12603
▁Alue	-12604
▁Visi	-12605
▁iman	-12606
bentuk	-12607
▁Marse	-12608
▁dinas	-12609
lihatan	-12610
▁Betawi	-12611
▁Firman	-12612
▁Siprus	-12613
▁justru	-12614
▁Banggai	-12615
▁insiden	-12616
▁Ethiopia	-12617
▁pemakaman	-12618
▁diselesaikan	-12619
ов	-12620
xon	-12621
▁SR	-12622
alar	-12623
▁Aek	-12624
▁Inv	-12625
▁Syl	-12626
impah	-12627
intik	-12628
ospha	-12629
▁Jazz	-12630
▁Tanj	-12631
▁sind	-12632
herine	-12633
▁Bumbu	-12634
▁melek	-12635
▁Jordan	-12636
▁renang	-12637
▁Reformasi	-12638
▁pangkalan	-12639
▁Government	-12640
▁Pemberontakan	-12641
3/	-12642
lov	-12643
▁Sn	-12644
phia	-12645
▁Bum	-12646
▁Vis	-12647
kitab	-12648
undai	-12649
usung	-12650
▁1914	-12651
▁Well	-12652
enberg	-12653
ilaian	-12654
omoran	-12655
▁2018,	-12656
▁habis	-12657
▁pendah	-12658
▁Fantasy	-12659
▁Kennedy	-12660
▁monumen	-12661
Ke	-12662
”,	-12663
ega	-12664
▁6:	-12665
play	-12666
▁Bey	-12667
▁dev	-12668
ogram	-12669
rence	-12670
▁Rail	-12671
▁1945.	-12672
▁Porto	-12673
▁Solok	-12674
▁Tenaga	-12675
▁kajian	-12676
▁Senyawa	-12677
▁kabisat	-12678
▁kerjasama	-12679
▁merancang	-12680
▁melepaskan	-12681
▁mengajukan	-12682
▁Perencanaan	-12683
OT	-12684
esus	-12685
▁FTV	-12686
▁Gos	-12687
▁Ide	-12688
bayan	-12689
janya	-12690
thers	-12691
▁1932	-12692
▁Moch	-12693
▁Swan	-12694
▁Adolf	-12695
▁Blora	-12696
siapkan	-12697
wajiban	-12698
▁(1984)	-12699
▁Jurnal	-12700
provinsi	-12701
resentasi	-12702
▁keyboard	-12703
▁menyerah	-12704
▁Permaisuri	-12705
ön	-12706
yid	-12707
▁Eg	-12708
ancy	-12709
etto	-12710
sium	-12711
▁160	-12712
▁Pod	-12713
▁red	-12714
▁Fore	-12715
▁Lept	-12716
▁Aless	-12717
unduran	-12718
▁hangat	-12719
▁contohnya	-12720
▁perkiraan	-12721
▁sastrawan	-12722
ESA	-12723
lit	-12724
idad	-12725
kala	-12726
▁Rav	-12727
aruan	-12728
chive	-12729
elian	-12730
▁1912	-12731
▁anat	-12732
▁1.000	-12733
▁1980,	-12734
▁Duren	-12735
▁(1981)	-12736
▁Andreas	-12737
▁Rangers	-12738
▁Denpasar	-12739
▁merayakan	-12740
▁Kecelakaan	-12741
▁Kegubernuran	-12742
▁menyampaikan	-12743
))	-12744
Ang	-12745
New	-12746
iai	-12747
adas	-12748
ican	-12749
ourt	-12750
itzer	-12751
kanak	-12752
▁Besi	-12753
▁Hits	-12754
▁Insp	-12755
▁Shir	-12756
iganya	-12757
oksida	-12758
▁Bened	-12759
▁Saleh	-12760
▁start	-12761
▁rentang	-12762
▁Katedral	-12763
▁Halmahera	-12764
▁mengingat	-12765
▁Direktorat	-12766
▁menyebarkan	-12767
▁perkampungan	-12768
▁infrastruktur	-12769
EA	-12770
uha	-12771
-19,	-12772
bola	-12773
kuad	-12774
olin	-12775
rium	-12776
▁Vas	-12777
▁gur	-12778
rumah	-12779
▁1918	-12780
▁Five	-12781
▁Yong	-12782
▁tali	-12783
▁Stade	-12784
▁berik	-12785
elospha	-12786
▁ciptaan	-12787
▁kediaman	-12788
▁sepasang	-12789
▁Contohnya	-12790
▁Interview	-12791
▁demokrasi	-12792
pn	-12793
Ber	-12794
dez	-12795
tori	-12796
▁cel	-12797
ussia	-12798
▁NEAT	-12799
▁Soul	-12800
▁tank	-12801
▁1988,	-12802
▁Arist	-12803
▁Langu	-12804
▁(1983)	-12805
▁dianut	-12806
▁maksud	-12807
▁rempah	-12808
▁entitas	-12809
▁istimewa	-12810
▁terbakar	-12811
▁mengantar	-12812
▁Purbalingga	-12813
bao	-12814
dig	-12815
law	-12816
pel	-12817
tico	-12818
▁Bom	-12819
anjuk	-12820
▁Bush	-12821
▁Mats	-12822
▁Zone	-12823
utanan	-12824
▁1982,	-12825
▁pengeb	-12826
▁Sarawak	-12827
▁Tamiang	-12828
▁Penemuan	-12829
▁nantinya	-12830
▁Bondowoso	-12831
▁keindahan	-12832
▁dipasarkan	-12833
orp	-12834
West	-12835
eley	-12836
▁Kag	-12837
▁Zen	-12838
ulaan	-12839
▁Bagi	-12840
▁Bros	-12841
▁Jang	-12842
▁Briga	-12843
▁Catal	-12844
▁Paser	-12845
▁Vocal	-12846
▁parah	-12847
▁ratio	-12848
timedia	-12849
usianya	-12850
▁Adrian	-12851
▁Barisan	-12852
▁terkini	-12853
▁mengangkut	-12854
ips	-12855
kode	-12856
stra	-12857
▁aer	-12858
▁1920	-12859
▁Bing	-12860
▁Marx	-12861
angkar	-12862
emasan	-12863
▁Delhi	-12864
▁Human	-12865
▁Kompi	-12866
▁Liang	-12867
▁beban	-12868
arusnya	-12869
▁disana	-12870
▁lambat	-12871
▁setuju	-12872
imbingan	-12873
▁Charlie	-12874
▁Selayar	-12875
abr	-12876
▁Ip	-12877
▁Ru	-12878
amin	-12879
▁Mom	-12880
ouver	-12881
rican	-12882
▁Matt	-12883
▁Zhou	-12884
▁port	-12885
▁1987,	-12886
▁Stell	-12887
▁gajah	-12888
▁rumus	-12889
▁Volume	-12890
▁pedang	-12891
▁segmen	-12892
▁Version	-12893
▁komplek	-12894
▁Salvador	-12895
▁memahami	-12896
▁setingkat	-12897
▁diserahkan	-12898
900	-12899
▁AR	-12900
enya	-12901
imoto	-12902
likan	-12903
▁Bong	-12904
▁juri	-12905
estari	-12906
ungkus	-12907
▁Curug	-12908
▁Lurah	-12909
▁malah	-12910
▁Isidro	-12911
▁Mexico	-12912
▁Miller	-12913
▁Silver	-12914
endalian	-12915
ulingkan	-12916
▁ancaman	-12917
▁dikenali	-12918
▁Pendukung	-12919
▁Diponegoro	-12920
▁mendefinisikan	-12921
FL	-12922
oon	-12923
tak	-12924
▁98	-12925
▁IC	-12926
bass	-12927
egar	-12928
▁Edo	-12929
▁Ott	-12930
andro	-12931
▁truk	-12932
▁1972.	-12933
▁Field	-12934
▁Hamid	-12935
▁Neder	-12936
▁emosi	-12937
▁Histor	-12938
yphantes	-12939
▁Angkutan	-12940
▁Sudirman	-12941
▁hanyalah	-12942
organisasi	-12943
▁Pengetahuan	-12944
▁kesepakatan	-12945
ος	-12946
şti	-12947
data	-12948
iser	-12949
itya	-12950
▁Lis	-12951
cepat	-12952
ights	-12953
ugawa	-12954
▁Ment	-12955
▁Sard	-12956
▁1930-	-12957
▁Artis	-12958
▁Halte	-12959
▁ragam	-12960
▁tiang	-12961
▁wasit	-12962
▁Indeks	-12963
▁Spring	-12964
▁atasnya	-12965
▁terluar	-12966
▁segitiga	-12967
▁£	-12968
oya	-12969
sai	-12970
isha	-12971
sidi	-12972
▁Bub	-12973
urian	-12974
▁1928	-12975
▁Ross	-12976
▁asin	-12977
▁Ocean	-12978
▁Qatar	-12979
▁makin	-12980
▁Kanaan	-12981
▁Lincol	-12982
▁Rumpun	-12983
▁angkat	-12984
▁Hyundai	-12985
▁formasi	-12986
yarakatan	-12987
▁asterisma	-12988
▁Volkswagen	-12989
▁memperbaiki	-12990
De	-12991
LS	-12992
üh	-12993
ogi	-12994
▁1)	-12995
anam	-12996
mani	-12997
obot	-12998
▁CEO	-12999
▁Hik	-13000
▁Squ	-13001
arium	-13002
ombol	-13003
▁1905	-13004
▁Bagh	-13005
▁Kent	-13006
▁Kyai	-13007
▁Moun	-13008
▁Palu	-13009
▁bara	-13010
▁Patri	-13011
▁tegak	-13012
▁mengaw	-13013
▁runner	-13014
▁Arizona	-13015
▁Vladimir	-13016
▁Yordania	-13017
▁pedalaman	-13018
▁melaporkan	-13019
▁dihancurkan	-13020
▁kontemporer	-13021
had	-13022
▁28.	-13023
▁Ain	-13024
▁Dai	-13025
▁Shu	-13026
▁Shō	-13027
▁alf	-13028
▁bad	-13029
▁Brig	-13030
▁Rasa	-13031
▁resm	-13032
ohonan	-13033
uasana	-13034
▁Pagar	-13035
▁rudal	-13036
angeran	-13037
esident	-13038
jakarta	-13039
otarsus	-13040
▁Bantul	-13041
▁teolog	-13042
olongkan	-13043
▁Alberta	-13044
▁Arsenal	-13045
▁Bolivia	-13046
▁Marshall	-13047
Ha	-13048
jp	-13049
etti	-13050
nasi	-13051
rent	-13052
▁not	-13053
▁uji	-13054
ather	-13055
yanti	-13056
▁Just	-13057
▁muka	-13058
change	-13059
emahan	-13060
▁Remix	-13061
▁binti	-13062
▁alamat	-13063
asalahan	-13064
▁Jacques	-13065
▁Vincent	-13066
▁perbaikan	-13067
▁Perdamaian	-13068
▁pembelajaran	-13069
–12	-13070
▁71	-13071
long	-13072
▁amp	-13073
Final	-13074
▁Blog	-13075
▁Khal	-13076
▁paku	-13077
▁1978.	-13078
▁2022,	-13079
▁Gitar	-13080
▁Happy	-13081
▁basah	-13082
▁berda	-13083
▁kadar	-13084
▁player	-13085
▁Banyuas	-13086
▁realitas	-13087
▁pengajaran	-13088
awak	-13089
erau	-13090
loid	-13091
▁(12	-13092
▁Rup	-13093
ching	-13094
umpah	-13095
zania	-13096
▁Joko	-13097
▁Like	-13098
▁Biasa	-13099
▁Derby	-13100
▁disek	-13101
▁rezim	-13102
▁sabuk	-13103
ulainya	-13104
yaratan	-13105
▁Andrea	-13106
▁Petani	-13107
▁diraih	-13108
▁Mutiara	-13109
▁memaksa	-13110
▁bermotor	-13111
▁kerangka	-13112
ampilannya	-13113
▁Marseille	-13114
▁Topografi	-13115
▁dihentikan	-13116
urs	-13117
▁Cu	-13118
ului	-13119
▁Akh	-13120
▁Sac	-13121
▁aut	-13122
orter	-13123
overy	-13124
▁Beth	-13125
▁Niss	-13126
eksual	-13127
▁1976.	-13128
▁1985,	-13129
▁Jetis	-13130
▁Lahat	-13131
▁Saham	-13132
atuhkan	-13133
bayaran	-13134
▁mengab	-13135
▁Asuransi	-13136
▁Memorial	-13137
▁pedukuhan	-13138
kla	-13139
▁Dy	-13140
▁Gy	-13141
alai	-13142
alun	-13143
atre	-13144
ikon	-13145
muka	-13146
orus	-13147
▁Agu	-13148
▁Lau	-13149
▁Baga	-13150
▁Bina	-13151
▁Week	-13152
castle	-13153
▁Break	-13154
▁Stats	-13155
gagalan	-13156
▁Lingga	-13157
▁langka	-13158
▁subjek	-13159
▁Gabriel	-13160
▁lagunya	-13161
▁peranan	-13162
▁Paraguay	-13163
▁berulang	-13164
▁Banyuasin	-13165
asyarakatan	-13166
▁perkawinan	-13167
iv	-13168
lé	-13169
rul	-13170
fisi	-13171
nabi	-13172
donan	-13173
▁1943	-13174
▁Gemb	-13175
▁Link	-13176
▁Masih	-13177
▁Titik	-13178
▁agung	-13179
▁Binjai	-13180
▁Rafael	-13181
▁sayang	-13182
▁Pembawa	-13183
▁dijabat	-13184
▁irigasi	-13185
▁memberit	-13186
▁potongan	-13187
▁religius	-13188
▁komoditas	-13189
▁topografi	-13190
IK	-13191
rier	-13192
angku	-13193
paran	-13194
▁Lumb	-13195
▁Orig	-13196
▁Rote	-13197
▁2017.	-13198
▁Rawas	-13199
▁kawah	-13200
▁kesep	-13201
alengka	-13202
yakinan	-13203
▁penyus	-13204
▁senang	-13205
▁jalanan	-13206
▁lamanya	-13207
▁Benjamin	-13208
▁persatuan	-13209
Sc	-13210
far	-13211
pos	-13212
▁900	-13213
▁Low	-13214
▁tes	-13215
ermin	-13216
▁1927	-13217
▁Kaur	-13218
▁Pale	-13219
▁Zeus	-13220
▁baju	-13221
▁blog	-13222
▁meja	-13223
▁Bolog	-13224
▁dilan	-13225
▁Ludwig	-13226
▁berkec	-13227
▁temannya	-13228
▁lokasinya	-13229
Ba	-13230
Air	-13231
Mer	-13232
hon	-13233
uld	-13234
wai	-13235
▁79	-13236
▁HD	-13237
inar	-13238
▁Mai	-13239
kapal	-13240
▁1922	-13241
▁Bomb	-13242
▁Bres	-13243
▁Stra	-13244
▁mark	-13245
ektual	-13246
ombaan	-13247
▁2000-	-13248
▁Brand	-13249
▁Genus	-13250
dwalkan	-13251
ufaktur	-13252
▁Flight	-13253
▁indeks	-13254
▁penemu	-13255
▁vektor	-13256
▁Monumen	-13257
▁Heinrich	-13258
▁Tokugawa	-13259
▁bermuara	-13260
▁matematikawan	-13261
Ad	-13262
En	-13263
sul	-13264
▁CS	-13265
Star	-13266
pers	-13267
▁15,	-13268
▁Cok	-13269
▁Dja	-13270
▁MNC	-13271
pansi	-13272
▁1933	-13273
▁Crow	-13274
▁lari	-13275
▁Damai	-13276
▁Gusti	-13277
▁Sutan	-13278
▁sekel	-13279
▁kredit	-13280
▁Kembali	-13281
▁pelawak	-13282
▁RA	-13283
aden	-13284
cius	-13285
grup	-13286
olok	-13287
wung	-13288
▁out	-13289
▁ref	-13290
▁rer	-13291
inand	-13292
sedur	-13293
sifat	-13294
▁1911	-13295
▁1924	-13296
▁Enam	-13297
▁Nara	-13298
ecahan	-13299
▁Buddh	-13300
▁Gunda	-13301
▁Intan	-13302
▁bursa	-13303
erakkan	-13304
▁(2017)	-13305
▁Julius	-13306
▁Fransis	-13307
▁Nganjuk	-13308
▁merusak	-13309
!"	-13310
Pr	-13311
▁GM	-13312
▁Zo	-13313
epsi	-13314
less	-13315
▁Gent	-13316
▁Watu	-13317
▁awan	-13318
▁neur	-13319
Infobox	-13320
▁Darwin	-13321
▁Urusan	-13322
▁amatir	-13323
▁logika	-13324
▁meledak	-13325
▁Selangor	-13326
▁mengajak	-13327
▁resminya	-13328
▁interview	-13329
▁munculnya	-13330
▁memecahkan	-13331
▁ekstrakurikuler	-13332
Ag	-13333
Com	-13334
mil	-13335
nai	-13336
fran	-13337
▁2.0	-13338
▁NBC	-13339
▁Ria	-13340
other	-13341
uting	-13342
▁line	-13343
▁Abang	-13344
▁Lahan	-13345
▁Tabel	-13346
▁fakta	-13347
▁Kresna	-13348
▁Syarif	-13349
▁kental	-13350
▁multin	-13351
▁Rencana	-13352
▁kristal	-13353
▁Brothers	-13354
▁database	-13355
▁beraliran	-13356
Az	-13357
-196	-13358
abul	-13359
aine	-13360
amik	-13361
atra	-13362
elus	-13363
yeon	-13364
çois	-13365
▁KRL	-13366
▁Lac	-13367
asila	-13368
badan	-13369
daran	-13370
▁1934	-13371
▁Next	-13372
▁samb	-13373
enegro	-13374
▁13.9.	-13375
▁Bonto	-13376
▁hantu	-13377
▁marah	-13378
▁muara	-13379
▁Hitler	-13380
▁Medali	-13381
▁Palang	-13382
▁sentra	-13383
▁Country	-13384
▁Kolonel	-13385
▁Legenda	-13386
▁Newcastle	-13387
▁spiritual	-13388
▁Mediterania	-13389
▁membuktikan	-13390
▁mengungkapkan	-13391
Nov	-13392
ours	-13393
sted	-13394
▁Alb	-13395
peran	-13396
uncur	-13397
ategor	-13398
iringi	-13399
jaring	-13400
olehan	-13401
▁1975.	-13402
▁Major	-13403
▁Spong	-13404
▁Borneo	-13405
▁Brazil	-13406
▁Bahrain	-13407
▁berencana	-13408
▁berisikan	-13409
▁terakhirnya	-13410
cep	-13411
▁CB	-13412
ango	-13413
essa	-13414
yong	-13415
▁Chu	-13416
imaan	-13417
▁Semp	-13418
▁desi	-13419
▁1979,	-13420
▁1984,	-13421
tionary	-13422
▁Wander	-13423
▁kejaya	-13424
▁Belarus	-13425
▁Magazine	-13426
▁tanggung	-13427
▁Konstantinopel	-13428
Co	-13429
rs	-13430
▁Kok	-13431
▁Lex	-13432
▁Mab	-13433
oplas	-13434
uaran	-13435
▁0.12	-13436
▁Bull	-13437
▁Iman	-13438
▁Thor	-13439
unasah	-13440
▁1973.	-13441
▁finan	-13442
saingan	-13443
▁Taipei	-13444
▁England	-13445
▁adipati	-13446
▁perintis	-13447
▁Ringkasan	-13448
▁minoritas	-13449
▁misionaris	-13450
▁modifikasi	-13451
▁Abdurrahman	-13452
Jawa	-13453
bank	-13454
cker	-13455
▁Ple	-13456
▁Wen	-13457
empel	-13458
▁aneh	-13459
▁gand	-13460
erangi	-13461
klusif	-13462
▁1974.	-13463
▁Colum	-13464
▁Kutub	-13465
▁Opera	-13466
▁dolar	-13467
▁kapan	-13468
▁paham	-13469
▁Achmad	-13470
uthority	-13471
▁Senegal	-13472
ekerjakan	-13473
▁mingguan	-13474
▁perfilman	-13475
▁memperingati	-13476
▁multinasional	-13477
-202	-13478
arab	-13479
eger	-13480
gedi	-13481
uduh	-13482
▁Cij	-13483
▁Cow	-13484
▁emb	-13485
▁rup	-13486
amida	-13487
order	-13488
▁1925	-13489
▁Cong	-13490
▁Kash	-13491
usiaan	-13492
▁Finan	-13493
▁Helen	-13494
▁Mekan	-13495
▁Vokal	-13496
▁penal	-13497
▁takut	-13498
▁Cliona	-13499
▁Pemkab	-13500
▁sidang	-13501
▁berputar	-13502
▁pemahaman	-13503
▁perkantoran	-13504
IR	-13505
aux	-13506
phy	-13507
vei	-13508
elek	-13509
gier	-13510
▁978	-13511
▁Jae	-13512
▁nav	-13513
▁sop	-13514
sejak	-13515
▁1886	-13516
▁Bayu	-13517
▁kosm	-13518
ikayat	-13519
onesia	-13520
▁About	-13521
▁Jessi	-13522
versial	-13523
▁Sesuai	-13524
▁Status	-13525
Kabupaten	-13526
opulerkan	-13527
▁Lawrence	-13528
▁Pencakar	-13529
▁pamannya	-13530
▁kekurangan	-13531
▁penambahan	-13532
▁Klasifikasi	-13533
▁Labuhanbatu	-13534
▁dijadwalkan	-13535
Mu	-13536
UD	-13537
oss	-13538
pau	-13539
mula	-13540
▁Fad	-13541
▁bat	-13542
▁bit	-13543
agama	-13544
ahbis	-13545
akura	-13546
omoro	-13547
zburg	-13548
silver	-13549
▁Siswa	-13550
▁Stutt	-13551
▁Tangg	-13552
▁Malina	-13553
ompokkan	-13554
▁Edition	-13555
▁Aplikasi	-13556
▁Seberang	-13557
▁biologis	-13558
▁Majalengka	-13559
▁pembuangan	-13560
▁Kekristenan	-13561
/0	-13562
At	-13563
udu	-13564
▁95	-13565
▁Hj	-13566
▁PR	-13567
aper	-13568
mbol	-13569
wait	-13570
▁175	-13571
▁Hum	-13572
▁RSS	-13573
▁mad	-13574
leksi	-13575
astern	-13576
ilisan	-13577
khusus	-13578
▁group	-13579
▁kurun	-13580
besaran	-13581
orangan	-13582
▁kuliner	-13583
▁Tawarikh	-13584
▁menyusul	-13585
▁mengadopsi	-13586
▁Bukittinggi	-13587
PC	-13588
wali	-13589
▁tit	-13590
itary	-13591
ource	-13592
▁Giri	-13593
▁duta	-13594
gaskar	-13595
▁jejak	-13596
▁jeruk	-13597
▁tanam	-13598
▁mentah	-13599
▁Keadaan	-13600
▁Konsili	-13601
▁Stadium	-13602
▁Yeremia	-13603
▁Electric	-13604
▁bernilai	-13605
▁statistics	-13606
▁Leptotarsus	-13607
unk	-13608
▁go	-13609
awai	-13610
ikar	-13611
seri	-13612
titu	-13613
udik	-13614
▁Box	-13615
▁Mec	-13616
▁Occ	-13617
entak	-13618
ronim	-13619
▁Adri	-13620
▁Than	-13621
▁Uang	-13622
▁kena	-13623
▁sari	-13624
ashion	-13625
▁1978,	-13626
▁Adams	-13627
▁salju	-13628
▁selat	-13629
acional	-13630
semburg	-13631
▁Gordon	-13632
▁Bologna	-13633
▁bercerai	-13634
▁bertahun	-13635
▁Sidomulyo	-13636
▁tenggelam	-13637
▁Karangasem	-13638
▁soundtrack	-13639
ajo	-13640
-20,	-13641
▁Cad	-13642
▁Inn	-13643
▁McG	-13644
▁nir	-13645
gresi	-13646
▁Sung	-13647
▁liat	-13648
▁Bener	-13649
▁Korps	-13650
▁batik	-13651
▁lebat	-13652
amatkan	-13653
▁sultan	-13654
ological	-13655
vatorium	-13656
▁Lainnya	-13657
▁Palomar	-13658
▁berdamp	-13659
▁kinerja	-13660
▁Filsafat	-13661
▁berharga	-13662
▁berjenis	-13663
▁berpikir	-13664
▁biografi	-13665
▁Madagaskar	-13666
▁berhadapan	-13667
▁menyatukan	-13668
▁ayahandanya	-13669
TB	-13670
eak	-13671
inf	-13672
idan	-13673
▁13,	-13674
▁Esp	-13675
▁Lup	-13676
▁Raw	-13677
arisi	-13678
nilai	-13679
▁Days	-13680
▁Demi	-13681
▁Foto	-13682
▁Kill	-13683
▁bend	-13684
▁paru	-13685
udinya	-13686
▁1970.	-13687
▁Dumai	-13688
agnitudo	-13689
▁Mitologi	-13690
▁menggelar	-13691
▁keberhasilan	-13692
EAN	-13693
KIP	-13694
een	-13695
▁CO	-13696
▁Mum	-13697
▁fer	-13698
illon	-13699
▁Stew	-13700
anduan	-13701
▁sumur	-13702
▁Bedagai	-13703
▁Systems	-13704
▁diputar	-13705
▁sebelas	-13706
ekarangan	-13707
▁melarang	-13708
▁berlawanan	-13709
▁ditinggalkan	-13710
2-	-13711
One	-13712
iley	-13713
ulik	-13714
▁Dod	-13715
▁Hop	-13716
▁McL	-13717
▁Tit	-13718
▁Gaga	-13719
▁Nint	-13720
▁diap	-13721
▁wing	-13722
Jerman	-13723
▁1981,	-13724
▁Hijau	-13725
▁align	-13726
▁domba	-13727
▁sejuk	-13728
embunyi	-13729
▁Design	-13730
▁Manila	-13731
▁sejati	-13732
▁Enterpr	-13733
ingkatkan	-13734
▁kelenjar	-13735
▁memanggil	-13736
▁Montenegro	-13737
▁berakhirnya	-13738
▁97	-13739
="5"	-13740
▁177	-13741
▁Arc	-13742
▁Gur	-13743
▁Ign	-13744
▁UTC	-13745
▁isu	-13746
▁Aziz	-13747
▁Baja	-13748
▁Mula	-13749
▁Poso	-13750
▁Rika	-13751
▁name	-13752
▁1967.	-13753
▁keman	-13754
▁rapat	-13755
▁ujian	-13756
vention	-13757
▁Kapoor	-13758
▁Lintas	-13759
▁Pabrik	-13760
▁Rwanda	-13761
▁Valent	-13762
▁detail	-13763
▁Menjadi	-13764
▁dihukum	-13765
▁ledakan	-13766
▁pelopor	-13767
▁sasaran	-13768
emakmuran	-13769
▁menutupi	-13770
▁musiknya	-13771
▁panglima	-13772
▁Stuttgart	-13773
▁kontribusi	-13774
▁q	-13775
▁IA	-13776
cita	-13777
ynth	-13778
▁sib	-13779
ormat	-13780
uling	-13781
▁Dion	-13782
▁Scot	-13783
ahanya	-13784
akarsa	-13785
epalai	-13786
ulator	-13787
▁Aston	-13788
▁Debut	-13789
▁Deddy	-13790
▁Donau	-13791
▁Lebar	-13792
▁Pablo	-13793
▁3166-2	-13794
▁berdua	-13795
▁tabung	-13796
▁Madinah	-13797
lementasi	-13798
Ap	-13799
SP	-13800
är	-13801
-30	-13802
cow	-13803
hao	-13804
lac	-13805
▁Ig	-13806
etra	-13807
lion	-13808
▁14,	-13809
▁Eag	-13810
▁bor	-13811
▁pic	-13812
ardjo	-13813
▁Burk	-13814
▁Cand	-13815
▁Gowa	-13816
▁Sean	-13817
▁Tamp	-13818
▁1965.	-13819
▁1966.	-13820
▁1975,	-13821
▁1977.	-13822
▁Bakti	-13823
▁Howard	-13824
▁Morris	-13825
▁Wright	-13826
▁disini	-13827
▁Sendang	-13828
▁ditanam	-13829
▁konstan	-13830
▁kuantum	-13831
▁penjual	-13832
▁Meunasah	-13833
▁fotografi	-13834
▁penderita	-13835
BL	-13836
Lo	-13837
No	-13838
▁Aj	-13839
fort	-13840
isia	-13841
team	-13842
▁Fah	-13843
▁Guy	-13844
▁Fame	-13845
▁Kitt	-13846
▁Roll	-13847
▁Ther	-13848
▁Yuda	-13849
▁cita	-13850
bangsa	-13851
▁liber	-13852
▁tinju	-13853
▁Giovan	-13854
▁analog	-13855
▁paroki	-13856
▁country	-13857
▁jajaran	-13858
▁larutan	-13859
▁mendaftar	-13860
▁transmisi	-13861
▁Lissodendoryx	-13862
▁mengembalikan	-13863
SL	-13864
ewu	-13865
hee	-13866
oge	-13867
zig	-13868
éné	-13869
▁GN	-13870
huni	-13871
osir	-13872
ukir	-13873
waru	-13874
▁Ade	-13875
▁Cher	-13876
empurn	-13877
▁Julia	-13878
▁sukar	-13879
▁Pemilu	-13880
dampingi	-13881
terutama	-13882
▁Somalia	-13883
▁dimasak	-13884
▁Economic	-13885
▁Margaret	-13886
▁Perempat	-13887
▁Tanzania	-13888
▁Ferdinand	-13889
▁bertanding	-13890
▁pembayaran	-13891
ül	-13892
ARA	-13893
tos	-13894
uja	-13895
▁Fle	-13896
▁Vin	-13897
erapi	-13898
▁Atlé	-13899
▁Cape	-13900
▁Joan	-13901
▁dosa	-13902
▁jati	-13903
igrasi	-13904
inesia	-13905
istika	-13906
▁1970,	-13907
▁1972,	-13908
▁Monte	-13909
▁Param	-13910
▁pemer	-13911
▁boneka	-13912
▁hidung	-13913
▁kontak	-13914
disertai	-13915
▁Seattle	-13916
▁tegangan	-13917
▁dibatalkan	-13918
▁operasinya	-13919
▁pengambilan	-13920
gad	-13921
hur	-13922
ijk	-13923
▁82	-13924
▁TH	-13925
imba	-13926
sung	-13927
wick	-13928
▁16,	-13929
▁737	-13930
asaki	-13931
bukan	-13932
urejo	-13933
▁1910	-13934
ubishi	-13935
▁1974,	-13936
▁Dendy	-13937
tukaran	-13938
▁Monako	-13939
▁kritis	-13940
▁kapital	-13941
▁Universi	-13942
▁Uzbekistan	-13943
▁orangtuanya	-13944
▁dikendalikan	-13945
ked	-13946
▁1,5	-13947
▁Amb	-13948
▁Ily	-13949
▁leb	-13950
▁sint	-13951
ondong	-13952
▁Laura	-13953
▁Salim	-13954
▁kenal	-13955
▁Telaga	-13956
▁adegan	-13957
engarkan	-13958
▁Singkil	-13959
▁menjalin	-13960
▁transisi	-13961
▁persiapan	-13962
▁Luksemburg	-13963
▁bermagnitudo	-13964
▁perbandingan	-13965
▁kontroversial	-13966
GN	-13967
UT	-13968
hem	-13969
rem	-13970
▁(13	-13971
▁Dwi	-13972
▁Ich	-13973
tanda	-13974
▁1926	-13975
▁Koes	-13976
▁Name	-13977
▁Rela	-13978
▁1969.	-13979
▁Dairi	-13980
▁Sains	-13981
▁Tanpa	-13982
▁cikal	-13983
ributor	-13984
▁Widodo	-13985
▁Samaria	-13986
▁Toronto	-13987
▁diminta	-13988
▁identik	-13989
perkirakan	-13990
▁menyadari	-13991
▁Bundesliga	-13992
▁penjelasan	-13993
▁Perhubungan	-13994
▁intelektual	-13995
▁didistribusikan	-13996
Ka	-13997
MB	-13998
01.	-13999
emin	-14000
lane	-14001
▁Hos	-14002
iform	-14003
rinya	-14004
▁DESA	-14005
▁Dave	-14006
▁over	-14007
usuhan	-14008
▁Harun	-14009
▁Lazio	-14010
alonkan	-14011
aryanya	-14012
▁Burton	-14013
▁Meriah	-14014
▁Parigi	-14015
▁Prusia	-14016
▁Resort	-14017
▁magnet	-14018
▁tembok	-14019
▁Century	-14020
▁terikat	-14021
▁Atlético	-14022
▁digabung	-14023
▁himpunan	-14024
▁kedaulatan	-14025
],	-14026
hay	-14027
anyu	-14028
loyd	-14029
tero	-14030
tium	-14031
umpa	-14032
▁STI	-14033
▁Vil	-14034
▁hum	-14035
effer	-14036
▁Fior	-14037
▁Skan	-14038
▁Tana	-14039
▁mang	-14040
aluasi	-14041
angkang	-14042
▁(1982)	-14043
▁10.000	-14044
▁Chalin	-14045
▁Undian	-14046
▁Mission	-14047
▁Vicente	-14048
▁menembak	-14049
▁kewajiban	-14050
▁Petersburg	-14051
▁menyajikan	-14052
▁Productions	-14053
-22	-14054
Rom	-14055
hev	-14056
usuk	-14057
▁Hyd	-14058
▁Sok	-14059
▁hay	-14060
amato	-14061
▁Gren	-14062
▁Shak	-14063
▁memf	-14064
badian	-14065
▁Alice	-14066
▁Habib	-14067
▁islam	-14068
atangkan	-14069
▁puluhan	-14070
▁seharusnya	-14071
▁konfigurasi	-14072
▁penglihatan	-14073
▁pendahulunya	-14074
▁penggunaannya	-14075
AA	-14076
11.	-14077
▁MM	-14078
hima	-14079
ouse	-14080
tius	-14081
utih	-14082
▁Kha	-14083
▁Sla	-14084
afsir	-14085
uston	-14086
▁Chât	-14087
▁Lhok	-14088
▁alur	-14089
imeter	-14090
irahat	-14091
▁1976,	-14092
▁Astro	-14093
▁Malta	-14094
▁Meran	-14095
▁Purba	-14096
▁bubar	-14097
mingham	-14098
▁(1973)	-14099
▁vocals	-14100
▁Chinese	-14101
▁fantasi	-14102
▁melingk	-14103
▁menahan	-14104
▁usianya	-14105
▁Director	-14106
▁elektrom	-14107
▁dengannya	-14108
▁sekeliling	-14109
360	-14110
uet	-14111
000,	-14112
enna	-14113
lins	-14114
peny	-14115
utes	-14116
▁109	-14117
▁Apa	-14118
eskop	-14119
▁Choi	-14120
▁Jamb	-14121
▁Pier	-14122
▁Turk	-14123
▁Ward	-14124
▁tikus	-14125
▁Garden	-14126
▁antark	-14127
▁botani	-14128
antangan	-14129
▁Kingdom	-14130
▁darurat	-14131
▁waralaba	-14132
▁literatur	-14133
▁linguistik	-14134
▁pendaratan	-14135
▁Austronesia	-14136
RS	-14137
450	-14138
ids	-14139
kal	-14140
tek	-14141
▁MH	-14142
Land	-14143
cket	-14144
sche	-14145
▁Lop	-14146
▁cac	-14147
kawan	-14148
▁Aram	-14149
▁Emmy	-14150
▁Lisa	-14151
▁ikon	-14152
▁logo	-14153
▁2003)	-14154
▁Jeruk	-14155
▁Prabu	-14156
▁segar	-14157
uaranya	-14158
▁Lumban	-14159
▁Ronald	-14160
▁Salomo	-14161
▁berker	-14162
adaannya	-14163
▁letusan	-14164
▁Nintendo	-14165
▁asosiasi	-14166
▁dicampur	-14167
▁Destinasi	-14168
▁diusulkan	-14169
WF	-14170
–7	-14171
Har	-14172
ław	-14173
iasi	-14174
iris	-14175
▁Jud	-14176
▁mun	-14177
akata	-14178
▁(191	-14179
▁Baku	-14180
▁Prat	-14181
angkai	-14182
ective	-14183
▁2019.	-14184
▁Benin	-14185
▁hipot	-14186
▁(1979)	-14187
▁Aquari	-14188
▁Michel	-14189
▁Teologi	-14190
▁merantau	-14191
▁eksternal	-14192
▁gravitasi	-14193
▁bertingkat	-14194
▁dilindungi	-14195
▁Dolichopeza	-14196
5%;	-14197
Bar	-14198
gat	-14199
iff	-14200
▁PG	-14201
basi	-14202
inae	-14203
▁Abb	-14204
▁JKT	-14205
▁Wai	-14206
▁bab	-14207
▁det	-14208
▁Astr	-14209
▁Dest	-14210
▁Reza	-14211
▁hard	-14212
consin	-14213
▁Parma	-14214
▁Place	-14215
▁serbu	-14216
▁surya	-14217
▁Forest	-14218
temannya	-14219
▁Lincoln	-14220
▁dilewati	-14221
▁kegagalan	-14222
Ti	-14223
gis	-14224
keb	-14225
sex	-14226
▁NS	-14227
otam	-14228
▁lon	-14229
stone	-14230
▁Bada	-14231
▁Gary	-14232
▁Otor	-14233
▁Rosa	-14234
amilia	-14235
eldorf	-14236
satria	-14237
▁Fland	-14238
▁Never	-14239
▁diray	-14240
▁lisan	-14241
anggota	-14242
aturing	-14243
enstein	-14244
temberg	-14245
▁Justin	-14246
▁Newton	-14247
▁dimuat	-14248
▁menari	-14249
▁tembakau	-14250
▁Stockholm	-14251
▁keyakinan	-14252
▁memandang	-14253
▁pelaksana	-14254
▁dimulainya	-14255
▁keterangan	-14256
▁penaklukan	-14257
▁pertanyaan	-14258
▁Herzegovina	-14259
</	-14260
bb	-14261
hid	-14262
hie	-14263
▁Sz	-14264
isir	-14265
ulon	-14266
▁130	-14267
▁CBS	-14268
ikawa	-14269
▁Burg	-14270
▁Miami	-14271
▁panen	-14272
▁Caesar	-14273
▁Ernest	-14274
▁Hassan	-14275
unggulan	-14276
▁Samosir	-14277
▁anatomi	-14278
▁Bendungan	-14279
▁Laksamana	-14280
▁Wisconsin	-14281
▁dihormati	-14282
▁mengizinkan	-14283
▁mempengaruhi	-14284
Pa	-14285
Ger	-14286
Kec	-14287
Sch	-14288
iha	-14289
anas	-14290
iles	-14291
kons	-14292
very	-14293
▁Hey	-14294
▁Tut	-14295
ileri	-14296
ontal	-14297
owiat	-14298
▁0.11	-14299
▁Jing	-14300
▁Nova	-14301
▁Peri	-14302
▁Semi	-14303
▁bund	-14304
▁file	-14305
agaman	-14306
▁Actor	-14307
▁Benua	-14308
▁ditak	-14309
▁minor	-14310
▁mitos	-14311
▁rutin	-14312
▁Arifin	-14313
▁Europe	-14314
▁Kauman	-14315
▁Marino	-14316
▁Matius	-14317
▁Parang	-14318
▁pelaku	-14319
industri	-14320
▁kemarau	-14321
▁memasak	-14322
▁menghar	-14323
▁Bengkalis	-14324
▁dirayakan	-14325
▁Birmingham	-14326
▁Matematika	-14327
▁perpindahan	-14328
▁konvensional	-14329
ан	-14330
%),	-14331
dip	-14332
ebe	-14333
Mala	-14334
ilas	-14335
orma	-14336
▁Aud	-14337
▁Jad	-14338
ampai	-14339
▁Elis	-14340
▁ruas	-14341
▁saus	-14342
▁sore	-14343
▁team	-14344
▁Rhein	-14345
▁heter	-14346
▁Markus	-14347
▁penjah	-14348
literasi	-14349
▁tersibuk	-14350
▁pengiriman	-14351
▁temperatur	-14352
py	-14353
UCN	-14354
hae	-14355
ürt	-14356
▁Bp	-14357
▁Adv	-14358
injal	-14359
ische	-14360
▁1931	-14361
▁Army	-14362
▁Cemp	-14363
▁Lanc	-14364
▁Pass	-14365
▁Timo	-14366
akiman	-14367
alihan	-14368
enanya	-14369
ombong	-14370
▁2009)	-14371
▁Franz	-14372
▁Yakub	-14373
▁kutub	-14374
plorasi	-14375
▁(1980)	-14376
▁Oliver	-14377
▁Panama	-14378
▁Pengan	-14379
▁Sparta	-14380
▁junior	-14381
biasanya	-14382
karyanya	-14383
▁Pacitan	-14384
▁menanam	-14385
▁Rintisan	-14386
▁Keturunan	-14387
▁dahulunya	-14388
▁posisinya	-14389
▁mengajarkan	-14390
▁sesungguhnya	-14391
GE	-14392
ić	-14393
mm	-14394
▁Au	-14395
▁Dé	-14396
chia	-14397
iful	-14398
onte	-14399
ović	-14400
tice	-14401
udes	-14402
▁Spr	-14403
linik	-14404
▁Brab	-14405
▁Want	-14406
▁dini	-14407
▁hias	-14408
iteria	-14409
jarkan	-14410
▁Babil	-14411
▁Barry	-14412
▁Count	-14413
▁Hello	-14414
▁Puluh	-14415
▁Susan	-14416
▁klien	-14417
sekolah	-14418
▁59.5%;	-14419
▁Dublin	-14420
▁Heaven	-14421
▁Invasi	-14422
▁Nissan	-14423
▁Pernah	-14424
▁fiktif	-14425
▁matang	-14426
emukakan	-14427
▁(2002).	-14428
▁Benedik	-14429
▁Mandiri	-14430
▁metabol	-14431
prefektur	-14432
▁Maharaja	-14433
▁Penyebab	-14434
▁dipenuhi	-14435
▁penyedia	-14436
ategorikan	-14437
▁Transport	-14438
▁tampaknya	-14439
▁Pertumbuhan	-14440
▁berkualitas	-14441
Off	-14442
sup	-14443
▁83	-14444
rana	-14445
–198	-14446
▁Hig	-14447
▁Nin	-14448
▁Zhu	-14449
iname	-14450
quist	-14451
utang	-14452
▁Luna	-14453
▁Reli	-14454
▁1968.	-14455
▁Panji	-14456
▁minat	-14457
▁Marina	-14458
▁Semasa	-14459
▁Tulang	-14460
▁pistol	-14461
▁terasa	-14462
kelompok	-14463
▁Apabila	-14464
▁Theatre	-14465
▁alfabet	-14466
▁dihapus	-14467
▁korupsi	-14468
▁pelayaran	-14469
▁Permukiman	-14470
▁pengaturan	-14471
kas	-14472
▁81	-14473
ebel	-14474
enci	-14475
enos	-14476
otto	-14477
▁das	-14478
▁yan	-14479
bawah	-14480
iaran	-14481
▁Chun	-14482
akapan	-14483
▁1977,	-14484
▁Costa	-14485
▁Dacus	-14486
▁mandi	-14487
▁Commer	-14488
▁Dokter	-14489
▁vulkan	-14490
asejarah	-14491
▁Friends	-14492
▁Lembata	-14493
▁Pradesh	-14494
▁Telepon	-14495
▁terluka	-14496
▁yayasan	-14497
▁Personil	-14498
▁disahkan	-14499
▁mewarisi	-14500
ürttemberg	-14501
▁Coelospha	-14502
▁kesadaran	-14503
▁dipelajari	-14504
Gen	-14505
▁MB	-14506
alog	-14507
imah	-14508
rome	-14509
sing	-14510
ucut	-14511
ulue	-14512
▁Ear	-14513
▁Het	-14514
enium	-14515
mulyo	-14516
ontak	-14517
xilla	-14518
▁Card	-14519
▁Gron	-14520
▁revi	-14521
▁14.1.	-14522
▁2004)	-14523
▁Bebas	-14524
▁keset	-14525
▁Classi	-14526
▁Langit	-14527
▁Second	-14528
ications	-14529
▁Asisten	-14530
▁penangk	-14531
▁terlaris	-14532
▁membatasi	-14533
▁Mitsubishi	-14534
ix	-14535
oz	-14536
ahe	-14537
▁Sv	-14538
Love	-14539
tory	-14540
tret	-14541
wald	-14542
yyah	-14543
▁1.0	-14544
▁105	-14545
▁Lea	-14546
▁Rac	-14547
▁Sos	-14548
amina	-14549
artir	-14550
▁Isab	-14551
▁Lost	-14552
▁Shen	-14553
eteran	-14554
▁Genoa	-14555
▁Kairo	-14556
osistem	-14557
▁Grande	-14558
▁Reaksi	-14559
▁Server	-14560
▁Trengg	-14561
▁Stanley	-14562
▁imigran	-14563
▁Katingan	-14564
▁Singingi	-14565
▁mengejar	-14566
▁Biography	-14567
▁Wanderers	-14568
▁penggerak	-14569
▁Informatika	-14570
▁kesejahteraan	-14571
–9	-14572
kir	-14573
truc	-14574
uart	-14575
uben	-14576
▁108	-14577
▁Eph	-14578
▁Ris	-14579
▁Sey	-14580
owers	-14581
▁Bast	-14582
▁Bisa	-14583
▁Clar	-14584
▁Dick	-14585
▁Erik	-14586
▁Peda	-14587
▁Toei	-14588
▁Vanc	-14589
▁imun	-14590
▁menu	-14591
▁subt	-14592
▁Basil	-14593
▁Buaya	-14594
▁Danny	-14595
▁Karno	-14596
▁Ricky	-14597
▁Track	-14598
▁defin	-14599
▁Paskah	-14600
▁bangku	-14601
▁pintar	-14602
endahara	-14603
▁Masakan	-14604
▁Stewart	-14605
▁lempeng	-14606
▁suasana	-14607
▁jatuhnya	-14608
▁kesamaan	-14609
▁Pancasila	-14610
▁Ketinggiannya	-14611
??	-14612
KB	-14613
bl	-14614
hog	-14615
alal	-14616
hara	-14617
ouch	-14618
pong	-14619
▁Eun	-14620
▁Led	-14621
▁Arya	-14622
▁koin	-14623
tienne	-14624
tivasi	-14625
▁Magic	-14626
▁Order	-14627
▁lensa	-14628
▁Kuwait	-14629
▁Pelaks	-14630
▁mental	-14631
umpamaan	-14632
▁melekat	-14633
▁Pasangan	-14634
▁sintesis	-14635
▁Production	-14636
▁Municipality	-14637
▁perpanjangan	-14638
?"	-14639
cell	-14640
iban	-14641
rett	-14642
▁Nai	-14643
▁Ont	-14644
▁Our	-14645
basis	-14646
ength	-14647
table	-14648
▁Gigi	-14649
▁Silva	-14650
▁Sumur	-14651
▁kanal	-14652
▁semak	-14653
▁Krueng	-14654
▁dialami	-14655
▁hadapan	-14656
▁pelayan	-14657
umbangkan	-14658
▁Produser	-14659
▁Salatiga	-14660
▁Southern	-14661
▁hasilnya	-14662
▁menembus	-14663
▁pembuluh	-14664
▁finansial	-14665
▁menuliskan	-14666
▁digolongkan	-14667
YA	-14668
ermo	-14669
▁Buc	-14670
▁Rov	-14671
▁sch	-14672
▁was	-14673
vence	-14674
▁Amph	-14675
▁Berp	-14676
▁Reng	-14677
secara	-14678
▁1971.	-14679
▁Cekos	-14680
▁Cover	-14681
▁Films	-14682
▁Sweet	-14683
▁Adalah	-14684
▁Knight	-14685
▁Pulang	-14686
▁berani	-14687
▁diukur	-14688
▁pondok	-14689
▁Purwodadi	-14690
▁apartemen	-14691
▁permasalahan	-14692
fu	-14693
202	-14694
Kal	-14695
iad	-14696
▁Pé	-14697
impa	-14698
▁Act	-14699
▁Hui	-14700
▁IBM	-14701
▁Rey	-14702
▁SEA	-14703
▁tal	-14704
diaan	-14705
▁akun	-14706
▁kast	-14707
▁saud	-14708
dibaca	-14709
mental	-14710
▁Herak	-14711
▁Phill	-14712
▁Theod	-14713
▁Works	-14714
▁(1977)	-14715
▁Doktor	-14716
▁Ikatan	-14717
▁Santos	-14718
▁penger	-14719
▁sampul	-14720
anggalan	-14721
▁petugas	-14722
▁terendah	-14723
▁Conference	-14724
▁manufaktur	-14725
▁mengganggu	-14726
cz	-14727
inn	-14728
oan	-14729
Peng	-14730
atim	-14731
eget	-14732
eren	-14733
sida	-14734
▁Bha	-14735
▁Zak	-14736
amban	-14737
ijrah	-14738
▁Basi	-14739
▁Julu	-14740
▁Noor	-14741
▁Vall	-14742
dalkan	-14743
ewatch	-14744
marhum	-14745
ongkat	-14746
▁1964.	-14747
▁1983,	-14748
▁citra	-14749
▁Anggun	-14750
▁Rudolf	-14751
bolehkan	-14752
▁Indiana	-14753
▁Malinau	-14754
▁teratur	-14755
▁Commuter	-14756
Hymedesmia	-14757
▁Akibatnya	-14758
▁Eksekutif	-14759
▁penilaian	-14760
▁Wilayahnya	-14761
EK	-14762
üss	-14763
egen	-14764
icia	-14765
▁BUM	-14766
▁Emb	-14767
▁Kre	-14768
▁Lun	-14769
▁are	-14770
▁nol	-14771
epage	-14772
▁Boro	-14773
ongkar	-14774
regasi	-14775
▁13.7.	-14776
▁1963.	-14777
▁1973,	-14778
▁Bruss	-14779
▁Chond	-14780
▁Flora	-14781
▁badai	-14782
▁rumit	-14783
▁tamat	-14784
▁tentu	-14785
▁Charlot	-14786
▁Profesi	-14787
▁studinya	-14788
▁Akuntansi	-14789
-29	-14790
ias	-14791
▁Og	-14792
sisa	-14793
▁Lai	-14794
▁Mim	-14795
▁Nad	-14796
ahara	-14797
iprah	-14798
lebih	-14799
▁1908	-14800
▁Cant	-14801
▁Chem	-14802
▁Chev	-14803
apolis	-14804
baptis	-14805
tenham	-14806
▁14.0.	-14807
▁1960,	-14808
▁Donal	-14809
▁Tommy	-14810
▁bujur	-14811
▁dilin	-14812
▁dinik	-14813
▁sadar	-14814
▁silat	-14815
▁urban	-14816
dapodik	-14817
▁Baekje	-14818
▁Bureau	-14819
▁Sierra	-14820
▁dangdut	-14821
▁ditolak	-14822
▁Giovanni	-14823
▁Mercedes	-14824
▁Nicholas	-14825
▁pencetak	-14826
▁pemisahan	-14827
▁Spacewatch	-14828
▁kolaborasi	-14829
▁terowongan	-14830
kt	-14831
hiz	-14832
evan	-14833
ites	-14834
▁19,	-14835
▁bul	-14836
donna	-14837
ectic	-14838
isnis	-14839
▁July	-14840
▁Ling	-14841
▁tani	-14842
uncing	-14843
ungkap	-14844
▁2008)	-14845
▁Ahmed	-14846
▁Nancy	-14847
▁fonem	-14848
▁rokok	-14849
ization	-14850
▁Dialek	-14851
▁Gunawan	-14852
▁seragam	-14853
▁Libertad	-14854
▁pencakar	-14855
Ge	-14856
tua	-14857
chis	-14858
ects	-14859
ilmu	-14860
midt	-14861
ript	-14862
west	-14863
▁Irc	-14864
▁XVI	-14865
uansa	-14866
▁Aero	-14867
▁Palm	-14868
▁Toda	-14869
▁morf	-14870
▁naga	-14871
▁13.8.	-14872
▁Jambu	-14873
▁Karta	-14874
▁Metal	-14875
▁figur	-14876
▁kapur	-14877
chester	-14878
▁Cakung	-14879
▁(2001).	-14880
▁Prinsip	-14881
▁Station	-14882
▁efisien	-14883
bagaimana	-14884
▁Axinella	-14885
▁tampilan	-14886
▁menghitung	-14887
Bob	-14888
oga	-14889
▁Eb	-14890
eden	-14891
▁Bec	-14892
▁Fuj	-14893
▁Ose	-14894
▁Zag	-14895
apura	-14896
nifer	-14897
▁Bent	-14898
▁Hamp	-14899
▁IUCN	-14900
▁Mori	-14901
▁Soft	-14902
▁kesi	-14903
ilding	-14904
▁1967,	-14905
▁Cerat	-14906
▁Marco	-14907
▁Riset	-14908
▁bedah	-14909
▁kanak	-14910
▁lapis	-14911
▁kompet	-14912
▁respon	-14913
▁Sahabat	-14914
▁disusul	-14915
▁Ramayana	-14916
▁Simeulue	-14917
▁bertajuk	-14918
▁dilintasi	-14919
▁penerapan	-14920
▁kelanjutan	-14921
OP	-14922
Sek	-14923
ique	-14924
▁Goa	-14925
▁Hem	-14926
▁cek	-14927
iraun	-14928
tikal	-14929
▁Faso	-14930
▁prim	-14931
▁Kyoto	-14932
▁facto	-14933
bilitas	-14934
▁Empire	-14935
▁Morgan	-14936
▁keping	-14937
▁Burkina	-14938
▁Computer	-14939
▁menjawab	-14940
▁Buddhisme	-14941
▁Vancouver	-14942
▁meminjamkannya	-14943
rib	-14944
yte	-14945
▁--	-14946
▁Ds	-14947
ecat	-14948
eser	-14949
raya	-14950
road	-14951
▁170	-14952
▁McD	-14953
▁gal	-14954
▁tud	-14955
egral	-14956
emala	-14957
▁Saul	-14958
caraka	-14959
▁ASEAN	-14960
▁Bunda	-14961
▁Daily	-14962
▁Photo	-14963
▁Seven	-14964
▁Woman	-14965
▁cabai	-14966
lowakia	-14967
▁Cimahi	-14968
▁Persik	-14969
▁berkul	-14970
▁sampah	-14971
ahbiskan	-14972
▁Cintaku	-14973
▁vitamin	-14974
▁François	-14975
▁menolong	-14976
▁usahanya	-14977
▁varietas	-14978
▁Challenge	-14979
▁transaksi	-14980
▁sekolahnya	-14981
▁mengandalkan	-14982
We	-14983
Art	-14984
For	-14985
apu	-14986
masi	-14987
rawa	-14988
uras	-14989
▁pip	-14990
▁ski	-14991
Austr	-14992
amoto	-14993
▁usus	-14994
public	-14995
yevich	-14996
▁2018.	-14997
▁Bella	-14998
▁Karim	-14999
▁Lucky	-15000
▁Musta	-15001
▁amino	-15002
▁ketat	-15003
▁tiket	-15004
urutkan	-15005
▁Arnold	-15006
▁Masing	-15007
▁Monica	-15008
▁Beatles	-15009
▁Eastern	-15010
▁Keraton	-15011
▁Medical	-15012
▁koalisi	-15013
residenan	-15014
▁Kompleks	-15015
endekiawan	-15016
▁Authority	-15017
▁Perjuangan	-15018
▁sekumpulan	-15019
▁Č	-15020
01,	-15021
tia	-15022
ugi	-15023
–17	-15024
▁IM	-15025
▁Age	-15026
▁Rut	-15027
house	-15028
▁Made	-15029
▁Tris	-15030
▁inci	-15031
▁kamu	-15032
▁tiri	-15033
ighter	-15034
▁13.5.	-15035
▁1960.	-15036
▁Cangk	-15037
▁Craig	-15038
▁Fitri	-15039
▁Petro	-15040
▁Udine	-15041
▁pekon	-15042
▁sebut	-15043
▁Asmara	-15044
▁Gundam	-15045
▁Melati	-15046
▁Penyel	-15047
▁jadwal	-15048
▁persis	-15049
▁boyband	-15050
▁Borussia	-15051
▁Koperasi	-15052
▁potensial	-15053
▁publikasi	-15054
▁Purwakarta	-15055
▁berpenghuni	-15056
▁diidentifikasi	-15057
än	-15058
dex	-15059
egu	-15060
roy	-15061
rup	-15062
ugu	-15063
assi	-15064
zaki	-15065
▁Gom	-15066
epung	-15067
inata	-15068
▁1800	-15069
▁1899	-15070
▁Ayam	-15071
▁Nice	-15072
▁Posi	-15073
▁Tara	-15074
▁Wald	-15075
sering	-15076
▁Abbas	-15077
▁Alpha	-15078
▁Board	-15079
▁Cuneo	-15080
▁Huang	-15081
▁Kedah	-15082
▁Pangk	-15083
▁Sifat	-15084
acarita	-15085
▁Africa	-15086
▁mekanik	-15087
ordinator	-15088
perusahaan	-15089
▁misterius	-15090
▁memelihara	-15091
▁Halichondria	-15092
éd	-15093
fil	-15094
char	-15095
▁(30	-15096
▁20,	-15097
▁Ein	-15098
ensin	-15099
▁Kids	-15100
▁Kras	-15101
▁Rick	-15102
▁Tojo	-15103
aksara	-15104
omenda	-15105
▁Bakar	-15106
▁Burma	-15107
▁Ingin	-15108
▁Raspa	-15109
▁Sangi	-15110
▁Sasak	-15111
▁Women	-15112
▁resep	-15113
agnetik	-15114
▁Grogol	-15115
▁Kristi	-15116
▁Sinait	-15117
▁Chronic	-15118
▁Maulana	-15119
▁Satelit	-15120
▁Twitter	-15121
▁Alexandr	-15122
▁Exchange	-15123
▁Konvensi	-15124
▁Wonosari	-15125
▁ketiganya	-15126
EG	-15127
SK	-15128
VA	-15129
▁NY	-15130
▁OP	-15131
▁RM	-15132
olev	-15133
wart	-15134
unian	-15135
▁Fuku	-15136
▁Kana	-15137
▁Psik	-15138
enazah	-15139
▁1971,	-15140
▁2020.	-15141
▁Hatta	-15142
▁Merek	-15143
▁Trade	-15144
▁bebek	-15145
▁radar	-15146
Donnell	-15147
engkung	-15148
hancuran	-15149
▁Insiden	-15150
▁Bordeaux	-15151
▁Colorado	-15152
▁Penamaan	-15153
▁perjalan	-15154
▁Discovery	-15155
Eum	-15156
You	-15157
iel	-15158
lev	-15159
▁AU	-15160
kali	-15161
olus	-15162
▁Pav	-15163
▁Tub	-15164
▁lah	-15165
▁mud	-15166
ardia	-15167
▁Padi	-15168
▁Shad	-15169
apaian	-15170
iladel	-15171
▁1968,	-15172
▁areal	-15173
bangkan	-15174
enhagen	-15175
▁Aliran	-15176
▁Gadang	-15177
▁Telkom	-15178
▁Travel	-15179
▁antrop	-15180
▁lampau	-15181
▁Persija	-15182
▁Solomon	-15183
▁bergaya	-15184
▁pemusik	-15185
▁tembaga	-15186
▁Suriname	-15187
▁elektrik	-15188
▁Banjarsari	-15189
▁kontroversi	-15190
▁menginginkan	-15191
6).	-15192
cas	-15193
kat	-15194
ères	-15195
▁Nir	-15196
▁Yuk	-15197
▁Dara	-15198
▁Dipl	-15199
▁Flam	-15200
▁Iron	-15201
▁Mama	-15202
▁cont	-15203
alinya	-15204
buwana	-15205
faatan	-15206
iturgi	-15207
▁Aster	-15208
▁Jamie	-15209
▁Jeong	-15210
▁Unsur	-15211
▁piala	-15212
▁tengk	-15213
▁Pakpak	-15214
▁cakram	-15215
omendasi	-15216
▁Angkasa	-15217
▁Barbara	-15218
▁Ontario	-15219
▁ditrans	-15220
▁petinju	-15221
endudukan	-15222
▁mengusir	-15223
▁Stelletta	-15224
▁Aleksander	-15225
▁dibebaskan	-15226
▁pergantian	-15227
disambiguasi	-15228
Ah	-15229
ece	-15230
zel	-15231
▁Kō	-15232
alil	-15233
ción	-15234
olla	-15235
yuki	-15236
▁1.8	-15237
▁CON	-15238
▁Lia	-15239
▁bac	-15240
Dusun	-15241
▁1921	-15242
▁Kubu	-15243
▁Tian	-15244
nesota	-15245
▁Coast	-15246
▁Entri	-15247
▁kepri	-15248
udahkan	-15249
▁(1971)	-15250
▁Minyak	-15251
▁ginjal	-15252
▁serang	-15253
▁dipaksa	-15254
▁lingkup	-15255
▁Original	-15256
▁eksklusif	-15257
▁Federation	-15258
▁persekutuan	-15259
▁persyaratan	-15260
▁popularitas	-15261
▁kemampuannya	-15262
Ta	-15263
lun	-15264
[...]
